{
  "version": "1.0",
  "truncation": {
    "direction": "Right",
    "max_length": 256,
    "strategy": "LongestFirst",
    "stride": 0
  },
  "padding": {
    "strategy": "BatchLongest",
    "direction": "Right",
    "pad_to_multiple_of": null,
    "pad_id": 0,
    "pad_type_id": 0,
    "pad_token": "[PAD]"
  },
  "added_tokens": [
    {
      "id": 0,
      "content": "[PAD]",
      "single_word": false,
      "lstrip": false,
      "rstrip": false,
      "normalized": false,
      "special": true
    },
    {
      "id": 1,
      "content": "[UNK]",
      "single_word": false,
      "lstrip": false,
      "rstrip": false,
      "normalized": false,
      "special": true
    },
    {
      "id": 2,
      "content": "[BOS]",
      "single_word": false,
      "lstrip": false,
      "rstrip": false,
      "normalized": false,
      "special": true
    },
    {
      "id": 3,
      "content": "[EOS]",
      "single_word": false,
      "lstrip": false,
      "rstrip": false,
      "normalized": false,
      "special": true
    },
    {
      "id": 4,
      "content": "[SEP]",
      "single_word": false,
      "lstrip": false,
      "rstrip": false,
      "normalized": false,
      "special": true
    }
  ],
  "normalizer": null,
  "pre_tokenizer": {
    "type": "Whitespace"
  },
  "post_processor": {
    "type": "TemplateProcessing",
    "single": [
      {
        "SpecialToken": {
          "id": "[BOS]",
          "type_id": 0
        }
      },
      {
        "Sequence": {
          "id": "A",
          "type_id": 0
        }
      },
      {
        "SpecialToken": {
          "id": "[EOS]",
          "type_id": 0
        }
      }
    ],
    "pair": [
      {
        "SpecialToken": {
          "id": "[BOS]",
          "type_id": 0
        }
      },
      {
        "Sequence": {
          "id": "A",
          "type_id": 0
        }
      },
      {
        "SpecialToken": {
          "id": "[SEP]",
          "type_id": 0
        }
      },
      {
        "Sequence": {
          "id": "B",
          "type_id": 1
        }
      },
      {
        "SpecialToken": {
          "id": "[EOS]",
          "type_id": 1
        }
      }
    ],
    "special_tokens": {
      "[BOS]": {
        "id": "[BOS]",
        "ids": [
          2
        ],
        "tokens": [
          "[BOS]"
        ]
      },
      "[EOS]": {
        "id": "[EOS]",
        "ids": [
          3
        ],
        "tokens": [
          "[EOS]"
        ]
      },
      "[SEP]": {
        "id": "[SEP]",
        "ids": [
          4
        ],
        "tokens": [
          "[SEP]"
        ]
      }
    }
  },
  "decoder": null,
  "model": {
    "type": "BPE",
    "dropout": null,
    "unk_token": "[UNK]",
    "continuing_subword_prefix": null,
    "end_of_word_suffix": null,
    "fuse_unk": false,
    "byte_fallback": false,
    "ignore_merges": false,
    "vocab": {
      "[PAD]": 0,
      "[UNK]": 1,
      "[BOS]": 2,
      "[EOS]": 3,
      "[SEP]": 4,
      "!": 5,
      "\"": 6,
      "#": 7,
      "$": 8,
      "%": 9,
      "&": 10,
      "'": 11,
      "(": 12,
      ")": 13,
      "*": 14,
      "+": 15,
      ",": 16,
      "-": 17,
      ".": 18,
      "/": 19,
      "0": 20,
      "1": 21,
      "2": 22,
      "3": 23,
      "4": 24,
      "5": 25,
      "6": 26,
      "7": 27,
      "8": 28,
      "9": 29,
      ":": 30,
      ";": 31,
      "<": 32,
      "=": 33,
      ">": 34,
      "?": 35,
      "@": 36,
      "A": 37,
      "B": 38,
      "C": 39,
      "D": 40,
      "E": 41,
      "F": 42,
      "G": 43,
      "H": 44,
      "I": 45,
      "J": 46,
      "K": 47,
      "L": 48,
      "M": 49,
      "N": 50,
      "O": 51,
      "P": 52,
      "Q": 53,
      "R": 54,
      "S": 55,
      "T": 56,
      "U": 57,
      "V": 58,
      "W": 59,
      "X": 60,
      "Y": 61,
      "Z": 62,
      "[": 63,
      "\\": 64,
      "]": 65,
      "^": 66,
      "_": 67,
      "`": 68,
      "a": 69,
      "b": 70,
      "c": 71,
      "d": 72,
      "e": 73,
      "f": 74,
      "g": 75,
      "h": 76,
      "i": 77,
      "j": 78,
      "k": 79,
      "l": 80,
      "m": 81,
      "n": 82,
      "o": 83,
      "p": 84,
      "q": 85,
      "r": 86,
      "s": 87,
      "t": 88,
      "u": 89,
      "v": 90,
      "w": 91,
      "x": 92,
      "y": 93,
      "z": 94,
      "{": 95,
      "|": 96,
      "}": 97,
      "~": 98,
      "§": 99,
      "°": 100,
      "Ô": 101,
      "á": 102,
      "ã": 103,
      "ä": 104,
      "è": 105,
      "é": 106,
      "ì": 107,
      "í": 108,
      "ï": 109,
      "ñ": 110,
      "ó": 111,
      "ö": 112,
      "ā": 113,
      "Ă": 114,
      "ă": 115,
      "ć": 116,
      "Č": 117,
      "ē": 118,
      "ł": 119,
      "ń": 120,
      "ś": 121,
      "š": 122,
      "Δ": 123,
      "Θ": 124,
      "Λ": 125,
      "Σ": 126,
      "Φ": 127,
      "Ψ": 128,
      "α": 129,
      "β": 130,
      "γ": 131,
      "δ": 132,
      "ε": 133,
      "η": 134,
      "θ": 135,
      "κ": 136,
      "λ": 137,
      "μ": 138,
      "π": 139,
      "ρ": 140,
      "σ": 141,
      "τ": 142,
      "χ": 143,
      "ω": 144,
      "in": 145,
      "on": 146,
      "at": 147,
      "re": 148,
      "an": 149,
      "th": 150,
      "en": 151,
      "er": 152,
      "al": 153,
      "ing": 154,
      "es": 155,
      "ti": 156,
      "or": 157,
      "ed": 158,
      "ro": 159,
      "st": 160,
      "ar": 161,
      "as": 162,
      "and": 163,
      "ati": 164,
      "the": 165,
      "de": 166,
      "le": 167,
      "ic": 168,
      "is": 169,
      "to": 170,
      "ac": 171,
      "ation": 172,
      "ent": 173,
      "of": 174,
      "it": 175,
      "ve": 176,
      "for": 177,
      "co": 178,
      "mp": 179,
      "ly": 180,
      "ge": 181,
      "ur": 182,
      "mo": 183,
      "ce": 184,
      "ex": 185,
      "ch": 186,
      "pro": 187,
      "si": 188,
      "se": 189,
      "tion": 190,
      "ab": 191,
      "tr": 192,
      "del": 193,
      "me": 194,
      "per": 195,
      "res": 196,
      "LM": 197,
      "ul": 198,
      "con": 199,
      "LLM": 200,
      "un": 201,
      "ain": 202,
      "ec": 203,
      "we": 204,
      "ver": 205,
      "ap": 206,
      "model": 207,
      "ate": 208,
      "ig": 209,
      "ment": 210,
      "il": 211,
      "str": 212,
      "ut": 213,
      "di": 214,
      "ith": 215,
      "that": 216,
      "form": 217,
      "ts": 218,
      "lo": 219,
      "su": 220,
      "ev": 221,
      "ad": 222,
      "ity": 223,
      "us": 224,
      "gu": 225,
      "age": 226,
      "with": 227,
      "LLMs": 228,
      "qu": 229,
      "fic": 230,
      "int": 231,
      "tic": 232,
      "comp": 233,
      "uc": 234,
      "no": 235,
      "po": 236,
      "angu": 237,
      "wh": 238,
      "ess": 239,
      "gen": 240,
      "models": 241,
      "dat": 242,
      "li": 243,
      "wor": 244,
      "ir": 245,
      "et": 246,
      "Th": 247,
      "ach": 248,
      "anguage": 249,
      "id": 250,
      "ance": 251,
      "ext": 252,
      "are": 253,
      "ag": 254,
      "gener": 255,
      "em": 256,
      "reas": 257,
      "ks": 258,
      "eval": 259,
      "iz": 260,
      "arge": 261,
      "ations": 262,
      "ine": 263,
      "igh": 264,
      "sp": 265,
      "ere": 266,
      "perform": 267,
      "ho": 268,
      "ally": 269,
      "able": 270,
      "We": 271,
      "red": 272,
      "by": 273,
      "ef": 274,
      "all": 275,
      "abil": 276,
      "und": 277,
      "bas": 278,
      "our": 279,
      "tive": 280,
      "ra": 281,
      "this": 282,
      "oning": 283,
      "man": 284,
      "tas": 285,
      "imp": 286,
      "ol": 287,
      "language": 288,
      "ri": 289,
      "work": 290,
      "cont": 291,
      "tho": 292,
      "reasoning": 293,
      "evalu": 294,
      "mar": 295,
      "el": 296,
      "ter": 297,
      "sy": 298,
      "ated": 299,
      "pl": 300,
      "mul": 301,
      "ding": 302,
      "ug": 303,
      "ten": 304,
      "out": 305,
      "ific": 306,
      "sc": 307,
      "do": 308,
      "ting": 309,
      "ss": 310,
      "rom": 311,
      "train": 312,
      "tu": 313,
      "main": 314,
      "ans": 315,
      "be": 316,
      "from": 317,
      "vi": 318,
      "eren": 319,
      "pre": 320,
      "am": 321,
      "cur": 322,
      "multi": 323,
      "op": 324,
      "cl": 325,
      "pres": 326,
      "ross": 327,
      "ese": 328,
      "ments": 329,
      "tions": 330,
      "performance": 331,
      "struc": 332,
      "metho": 333,
      "ers": 334,
      "ench": 335,
      "ant": 336,
      "par": 337,
      "how": 338,
      "ds": 339,
      "based": 340,
      "In": 341,
      "ign": 342,
      "du": 343,
      "gn": 344,
      "mon": 345,
      "ies": 346,
      "data": 347,
      "iti": 348,
      "ical": 349,
      "feren": 350,
      "inter": 351,
      "arch": 352,
      "ability": 353,
      "high": 354,
      "strate": 355,
      "stem": 356,
      "ating": 357,
      "com": 358,
      "ile": 359,
      "rec": 360,
      "fra": 361,
      "ne": 362,
      "bo": 363,
      "tasks": 364,
      "across": 365,
      "gr": 366,
      "ha": 367,
      "appro": 368,
      "enchmar": 369,
      "enti": 370,
      "large": 371,
      "ib": 372,
      "over": 373,
      "fec": 374,
      "fin": 375,
      "training": 376,
      "system": 377,
      "datas": 378,
      "benchmar": 379,
      "ative": 380,
      "vel": 381,
      "frame": 382,
      "led": 383,
      "Our": 384,
      "demon": 385,
      "cap": 386,
      "ling": 387,
      "ong": 388,
      "To": 389,
      "impro": 390,
      "ates": 391,
      "peri": 392,
      "ensi": 393,
      "ugh": 394,
      "spec": 395,
      "ich": 396,
      "Mo": 397,
      "their": 398,
      "sign": 399,
      "ual": 400,
      "anc": 401,
      "enc": 402,
      "),": 403,
      "ari": 404,
      "text": 405,
      "now": 406,
      "ud": 407,
      "present": 408,
      "so": 409,
      "ther": 410,
      "intro": 411,
      "approach": 412,
      "show": 413,
      "propo": 414,
      "ence": 415,
      "framework": 416,
      "ke": 417,
      "te": 418,
      "effec": 419,
      "inc": 420,
      "eng": 421,
      "under": 422,
      "fici": 423,
      "ay": 424,
      "This": 425,
      "ning": 426,
      "est": 427,
      "cess": 428,
      "uman": 429,
      "ail": 430,
      "lear": 431,
      "can": 432,
      "know": 433,
      "The": 434,
      "these": 435,
      "ities": 436,
      "which": 437,
      "tim": 438,
      "ist": 439,
      "low": 440,
      "human": 441,
      "ous": 442,
      "atic": 443,
      "au": 444,
      "not": 445,
      "ven": 446,
      "fine": 447,
      "ledge": 448,
      "ization": 449,
      "ard": 450,
      "resul": 451,
      "fi": 452,
      "promp": 453,
      "ves": 454,
      "des": 455,
      "duce": 456,
      "val": 457,
      "aly": 458,
      "ust": 459,
      "ress": 460,
      "achi": 461,
      "sist": 462,
      "tical": 463,
      "Large": 464,
      "accur": 465,
      "ack": 466,
      "more": 467,
      "ass": 468,
      "evaluation": 469,
      "por": 470,
      "ques": 471,
      "pa": 472,
      "acy": 473,
      "while": 474,
      "fac": 475,
      "knowledge": 476,
      "ty": 477,
      "lim": 478,
      "chall": 479,
      "analy": 480,
      "duc": 481,
      "tun": 482,
      "ality": 483,
      "ken": 484,
      "fe": 485,
      "context": 486,
      "sa": 487,
      "im": 488,
      "methods": 489,
      "its": 490,
      "ial": 491,
      "ons": 492,
      "such": 493,
      "comple": 494,
      "signific": 495,
      "trans": 496,
      "put": 497,
      "Ex": 498,
      "using": 499,
      "der": 500,
      "propose": 501,
      "ful": 502,
      "ll": 503,
      "significant": 504,
      "domain": 505,
      "tri": 506,
      "king": 507,
      "scal": 508,
      "search": 509,
      "dis": 510,
      "dif": 511,
      "ted": 512,
      "agent": 513,
      "results": 514,
      "Model": 515,
      "introduce": 516,
      "rough": 517,
      "ural": 518,
      "generation": 519,
      "ency": 520,
      "pr": 521,
      "lec": 522,
      "end": 523,
      "cor": 524,
      "Language": 525,
      "stand": 526,
      "inform": 527,
      "abilities": 528,
      "fo": 529,
      "up": 530,
      "have": 531,
      "align": 532,
      "ages": 533,
      "token": 534,
      "into": 535,
      "task": 536,
      "ree": 537,
      "wever": 538,
      "ep": 539,
      "sub": 540,
      "ure": 541,
      "both": 542,
      "ip": 543,
      "ference": 544,
      "Ho": 545,
      "isting": 546,
      "ving": 547,
      "Co": 548,
      "add": 549,
      "effici": 550,
      "log": 551,
      "achiev": 552,
      "resp": 553,
      "limit": 554,
      "plo": 555,
      "pri": 556,
      "ub": 557,
      "address": 558,
      "les": 559,
      "bet": 560,
      "lic": 561,
      "vers": 562,
      "plic": 563,
      "demonstrate": 564,
      "ight": 565,
      "tional": 566,
      "accuracy": 567,
      "However": 568,
      "specific": 569,
      "consist": 570,
      "ational": 571,
      "AI": 572,
      "learning": 573,
      "has": 574,
      "ma": 575,
      "istic": 576,
      "ource": 577,
      "ble": 578,
      "RA": 579,
      "ary": 580,
      "Models": 581,
      "process": 582,
      "ath": 583,
      "ors": 584,
      "through": 585,
      "information": 586,
      "cri": 587,
      "requ": 588,
      "experi": 589,
      "wer": 590,
      "ms": 591,
      "ensive": 592,
      "ness": 593,
      "often": 594,
      "vis": 595,
      "dataset": 596,
      "fer": 597,
      "enh": 598,
      "analys": 599,
      "structu": 600,
      "tw": 601,
      "det": 602,
      "challeng": 603,
      "ory": 604,
      "vari": 605,
      "ren": 606,
      "retri": 607,
      "quality": 608,
      "ish": 609,
      "level": 610,
      "ets": 611,
      "complex": 612,
      "effective": 613,
      "real": 614,
      ").": 615,
      "research": 616,
      "improve": 617,
      "strateg": 618,
      "sing": 619,
      "benchmark": 620,
      "rel": 621,
      "general": 622,
      "dings": 623,
      "code": 624,
      "but": 625,
      "vid": 626,
      "optim": 627,
      "ution": 628,
      "jec": 629,
      "ines": 630,
      "bi": 631,
      "sh": 632,
      "capabilities": 633,
      "design": 634,
      "tain": 635,
      "datasets": 636,
      "tra": 637,
      "urther": 638,
      "emp": 639,
      "adv": 640,
      "ion": 641,
      "remain": 642,
      "Re": 643,
      "existing": 644,
      "benchmarks": 645,
      "paper": 646,
      "represent": 647,
      "method": 648,
      "set": 649,
      "rect": 650,
      "two": 651,
      "om": 652,
      "ular": 653,
      "novel": 654,
      "anti": 655,
      "analysis": 656,
      "fy": 657,
      "mod": 658,
      "av": 659,
      "ized": 660,
      "mis": 661,
      "sion": 662,
      "tuning": 663,
      "comput": 664,
      "enab": 665,
      "stud": 666,
      "diver": 667,
      "fir": 668,
      "systems": 669,
      "clu": 670,
      "ics": 671,
      "gro": 672,
      "ple": 673,
      "ently": 674,
      "ser": 675,
      "aph": 676,
      "velo": 677,
      "adap": 678,
      "ces": 679,
      "med": 680,
      "sive": 681,
      "detec": 682,
      "metr": 683,
      "open": 684,
      "mantic": 685,
      "state": 686,
      "semantic": 687,
      "ween": 688,
      "chan": 689,
      "between": 690,
      "new": 691,
      "auto": 692,
      "reli": 693,
      "he": 694,
      "identi": 695,
      "ld": 696,
      "min": 697,
      "develo": 698,
      "ward": 699,
      "uring": 700,
      "ob": 701,
      "only": 702,
      "inte": 703,
      "integr": 704,
      "time": 705,
      "develop": 706,
      "also": 707,
      "trac": 708,
      "rob": 709,
      "output": 710,
      "demonstr": 711,
      "differen": 712,
      "outperform": 713,
      "diverse": 714,
      "pred": 715,
      "like": 716,
      "tt": 717,
      "GP": 718,
      "lish": 719,
      "bias": 720,
      "robust": 721,
      "syn": 722,
      "sol": 723,
      "pec": 724,
      "veal": 725,
      "reveal": 726,
      "nam": 727,
      "ically": 728,
      "ame": 729,
      "provid": 730,
      "basel": 731,
      "ran": 732,
      "experiments": 733,
      "when": 734,
      "understand": 735,
      "inclu": 736,
      "increas": 737,
      "long": 738,
      "where": 739,
      "study": 740,
      "evaluate": 741,
      "alignment": 742,
      "mental": 743,
      "rele": 744,
      "first": 745,
      "RAG": 746,
      "assess": 747,
      "findings": 748,
      "cis": 749,
      "use": 750,
      "art": 751,
      "cu": 752,
      "multiple": 753,
      "retrieval": 754,
      "predic": 755,
      "applic": 756,
      "Wh": 757,
      "00": 758,
      "world": 759,
      "ps": 760,
      "unc": 761,
      "os": 762,
      "ort": 763,
      "strong": 764,
      "three": 765,
      "autom": 766,
      "typ": 767,
      "approaches": 768,
      "app": 769,
      "ee": 770,
      "nat": 771,
      "sup": 772,
      "RL": 773,
      "inference": 774,
      "ide": 775,
      "answer": 776,
      "agents": 777,
      "um": 778,
      "tool": 779,
      "proble": 780,
      "generated": 781,
      "significantly": 782,
      "havi": 783,
      "core": 784,
      "than": 785,
      "QA": 786,
      "ture": 787,
      "reh": 788,
      "one": 789,
      "tern": 790,
      "challenges": 791,
      "used": 792,
      "tention": 793,
      "valu": 794,
      "achieves": 795,
      "dy": 796,
      "key": 797,
      "These": 798,
      "requi": 799,
      "critical": 800,
      "cep": 801,
      "behavi": 802,
      "bed": 803,
      "they": 804,
      "reg": 805,
      "lever": 806,
      "highl": 807,
      "GPT": 808,
      "source": 809,
      "step": 810,
      "rent": 811,
      "interpre": 812,
      "trained": 813,
      "transform": 814,
      "tech": 815,
      "interac": 816,
      "annot": 817,
      "mem": 818,
      "ances": 819,
      "prompt": 820,
      "structured": 821,
      "veness": 822,
      "nal": 823,
      "compreh": 824,
      "anguages": 825,
      "comm": 826,
      "ize": 827,
      "languages": 828,
      "reduc": 829,
      "avail": 830,
      "aw": 831,
      "remains": 832,
      "quer": 833,
      "cre": 834,
      "ameter": 835,
      "cost": 836,
      "understanding": 837,
      "gap": 838,
      "tur": 839,
      "instruc": 840,
      "vide": 841,
      "ety": 842,
      "graph": 843,
      "question": 844,
      "including": 845,
      "without": 846,
      "dynam": 847,
      "tial": 848,
      "ak": 849,
      "ved": 850,
      "user": 851,
      "mechan": 852,
      "different": 853,
      "further": 854,
      "foc": 855,
      "prac": 856,
      "ite": 857,
      "Experi": 858,
      "efficient": 859,
      "suppor": 860,
      "modal": 861,
      "systematic": 862,
      "En": 863,
      "sel": 864,
      "parameter": 865,
      "off": 866,
      "poten": 867,
      "expl": 868,
      "dep": 869,
      "selec": 870,
      "available": 871,
      "ared": 872,
      "act": 873,
      "While": 874,
      "htt": 875,
      "//": 876,
      "://": 877,
      "ER": 878,
      "lead": 879,
      "https": 880,
      "assi": 881,
      "soc": 882,
      "lingual": 883,
      "itec": 884,
      "ris": 885,
      "interpret": 886,
      "lay": 887,
      "ni": 888,
      "tiv": 889,
      "fication": 890,
      "sho": 891,
      "partic": 892,
      "ugment": 893,
      "anced": 894,
      "tiveness": 895,
      "explo": 896,
      "architec": 897,
      "Ch": 898,
      "attention": 899,
      "iter": 900,
      "each": 901,
      "sed": 902,
      "ents": 903,
      "classi": 904,
      "self": 905,
      "effectiveness": 906,
      "construc": 907,
      "scale": 908,
      "loc": 909,
      "strategies": 910,
      "ze": 911,
      "respon": 912,
      "back": 913,
      "scen": 914,
      "mechanis": 915,
      "--": 916,
      "sur": 917,
      "conf": 918,
      "ures": 919,
      "feat": 920,
      "trib": 921,
      "detection": 922,
      "onses": 923,
      "tokens": 924,
      "sequ": 925,
      "responses": 926,
      "uni": 927,
      "embed": 928,
      "ditional": 929,
      "line": 930,
      "samp": 931,
      "setting": 932,
      "rely": 933,
      "most": 934,
      "idence": 935,
      "test": 936,
      "transl": 937,
      "pers": 938,
      "gh": 939,
      "ph": 940,
      "ew": 941,
      "input": 942,
      "content": 943,
      "potential": 944,
      "fety": 945,
      "exper": 946,
      "ained": 947,
      "cover": 948,
      "extrac": 949,
      "efficiency": 950,
      "cogn": 951,
      "current": 952,
      ".,": 953,
      "tural": 954,
      "lab": 955,
      "gor": 956,
      "enco": 957,
      "ithub": 958,
      "br": 959,
      "them": 960,
      "domains": 961,
      "natural": 962,
      "scenari": 963,
      "identify": 964,
      "yet": 965,
      "erg": 966,
      "comb": 967,
      "comprehensive": 968,
      "github": 969,
      "exts": 970,
      "then": 971,
      "gra": 972,
      "ase": 973,
      "ground": 974,
      "fail": 975,
      "sigh": 976,
      "alluc": 977,
      "allucin": 978,
      "safety": 979,
      "Tr": 980,
      "questions": 981,
      "ise": 982,
      "introduc": 983,
      "super": 984,
      "ipel": 985,
      "person": 986,
      "cross": 987,
      "deplo": 988,
      "deploy": 989,
      "bal": 990,
      "pat": 991,
      "pipel": 992,
      "mat": 993,
      "fied": 994,
      "limited": 995,
      "fa": 996,
      "err": 997,
      "mil": 998,
      "eech": 999,
      "ace": 1000,
      "metrics": 1001,
      "Con": 1002,
      "hallucin": 1003,
      "relev": 1004,
      "resource": 1005,
      "ear": 1006,
      "applications": 1007,
      "outputs": 1008,
      "compar": 1009,
      "ering": 1010,
      "generate": 1011,
      "uil": 1012,
      "produc": 1013,
      "ind": 1014,
      "outperforms": 1015,
      "PO": 1016,
      "tual": 1017,
      "tig": 1018,
      "enabling": 1019,
      "need": 1020,
      "provide": 1021,
      "20": 1022,
      "prompts": 1023,
      "designed": 1024,
      "techni": 1025,
      "ill": 1026,
      "increasing": 1027,
      "particular": 1028,
      "MA": 1029,
      "hib": 1030,
      "lat": 1031,
      "insigh": 1032,
      "NL": 1033,
      "enge": 1034,
      "shot": 1035,
      "ref": 1036,
      "mall": 1037,
      "targe": 1038,
      "vestig": 1039,
      "dist": 1040,
      "prompting": 1041,
      "Pro": 1042,
      "view": 1043,
      "heren": 1044,
      "investig": 1045,
      "sum": 1046,
      "stanti": 1047,
      "contro": 1048,
      "distr": 1049,
      "docu": 1050,
      "behavior": 1051,
      "lack": 1052,
      "memory": 1053,
      "cent": 1054,
      "improves": 1055,
      "various": 1056,
      "within": 1057,
      "via": 1058,
      "amp": 1059,
      "scenarios": 1060,
      "wn": 1061,
      "dri": 1062,
      "ero": 1063,
      "limitations": 1064,
      "challenge": 1065,
      "cul": 1066,
      "single": 1067,
      "Bench": 1068,
      "uti": 1069,
      "dition": 1070,
      "cogni": 1071,
      "eve": 1072,
      "baselines": 1073,
      "De": 1074,
      "ore": 1075,
      "computational": 1076,
      "aware": 1077,
      "force": 1078,
      "during": 1079,
      "Ad": 1080,
      "clin": 1081,
      "jud": 1082,
      "ges": 1083,
      "quanti": 1084,
      "ream": 1085,
      "even": 1086,
      "supervis": 1087,
      "miti": 1088,
      "till": 1089,
      "offer": 1090,
      "label": 1091,
      "incor": 1092,
      "enhance": 1093,
      "att": 1094,
      "uistic": 1095,
      "due": 1096,
      "simp": 1097,
      "thes": 1098,
      "though": 1099,
      "pub": 1100,
      "mitig": 1101,
      "ains": 1102,
      "sci": 1103,
      "temp": 1104,
      "small": 1105,
      "udi": 1106,
      "pass": 1107,
      "substanti": 1108,
      "reward": 1109,
      "compared": 1110,
      "exhib": 1111,
      "if": 1112,
      "Eng": 1113,
      "ancing": 1114,
      "parad": 1115,
      "valid": 1116,
      "speech": 1117,
      "multilingual": 1118,
      "distrib": 1119,
      "ugg": 1120,
      "augment": 1121,
      "math": 1122,
      "effectively": 1123,
      "adapt": 1124,
      "CoT": 1125,
      "practical": 1126,
      "tor": 1127,
      "cho": 1128,
      "aim": 1129,
      "cision": 1130,
      "stream": 1131,
      "direct": 1132,
      "fl": 1133,
      "prior": 1134,
      "ens": 1135,
      "cr": 1136,
      "pattern": 1137,
      "deco": 1138,
      "paradig": 1139,
      "consistently": 1140,
      "iting": 1141,
      "problem": 1142,
      "other": 1143,
      "inforce": 1144,
      "hy": 1145,
      "well": 1146,
      "English": 1147,
      "constr": 1148,
      "found": 1149,
      "settings": 1150,
      "als": 1151,
      "optimization": 1152,
      "provides": 1153,
      "whe": 1154,
      "logy": 1155,
      "preser": 1156,
      "linguistic": 1157,
      "public": 1158,
      "simil": 1159,
      "making": 1160,
      "similar": 1161,
      "inforcement": 1162,
      "dial": 1163,
      "guid": 1164,
      "Rec": 1165,
      "studi": 1166,
      "enables": 1167,
      "logical": 1168,
      "ense": 1169,
      "simul": 1170,
      "Lo": 1171,
      "depend": 1172,
      "loy": 1173,
      "plicit": 1174,
      "challenging": 1175,
      "weight": 1176,
      "ards": 1177,
      "top": 1178,
      "strategy": 1179,
      "promis": 1180,
      "correct": 1181,
      "Gen": 1182,
      "sco": 1183,
      "aging": 1184,
      "find": 1185,
      "pipeline": 1186,
      "control": 1187,
      "meas": 1188,
      "instruction": 1189,
      "explicit": 1190,
      "maintain": 1191,
      "col": 1192,
      "insights": 1193,
      "Further": 1194,
      "employ": 1195,
      "come": 1196,
      "focus": 1197,
      "import": 1198,
      "turn": 1199,
      "particularly": 1200,
      "summar": 1201,
      "ner": 1202,
      "techniques": 1203,
      "ential": 1204,
      "support": 1205,
      "coun": 1206,
      "ably": 1207,
      "issu": 1208,
      "suc": 1209,
      "works": 1210,
      "utions": 1211,
      "medical": 1212,
      "By": 1213,
      "mensi": 1214,
      "non": 1215,
      "dimensi": 1216,
      "tuned": 1217,
      "ertain": 1218,
      "pair": 1219,
      "pe": 1220,
      "anning": 1221,
      "ficul": 1222,
      "special": 1223,
      "processing": 1224,
      "ot": 1225,
      "num": 1226,
      "representations": 1227,
      "medi": 1228,
      "relevant": 1229,
      "been": 1230,
      "difficul": 1231,
      "ric": 1232,
      "suf": 1233,
      "there": 1234,
      "achieving": 1235,
      "brid": 1236,
      "less": 1237,
      "Experiments": 1238,
      "oc": 1239,
      "sug": 1240,
      "clinical": 1241,
      "FT": 1242,
      "convers": 1243,
      "uture": 1244,
      "ca": 1245,
      "agno": 1246,
      "classification": 1247,
      "oring": 1248,
      "conduc": 1249,
      "achieve": 1250,
      "head": 1251,
      "highligh": 1252,
      "require": 1253,
      "oper": 1254,
      "izing": 1255,
      "ility": 1256,
      "learn": 1257,
      "accurate": 1258,
      "success": 1259,
      "gue": 1260,
      "translation": 1261,
      "features": 1262,
      "\\%": 1263,
      "ta": 1264,
      "better": 1265,
      "patterns": 1266,
      "LMs": 1267,
      "mark": 1268,
      "tures": 1269,
      "multimodal": 1270,
      "Trans": 1271,
      "thetic": 1272,
      "har": 1273,
      "alth": 1274,
      "af": 1275,
      "direc": 1276,
      "vir": 1277,
      "strugg": 1278,
      "BER": 1279,
      "buil": 1280,
      "tively": 1281,
      "future": 1282,
      "vol": 1283,
      "commun": 1284,
      "fol": 1285,
      "scalable": 1286,
      "clo": 1287,
      "ties": 1288,
      "standard": 1289,
      "studies": 1290,
      "fully": 1291,
      "ily": 1292,
      "robustness": 1293,
      "aver": 1294,
      "BERT": 1295,
      "Op": 1296,
      "ste": 1297,
      "ice": 1298,
      "emerg": 1299,
      "exhibit": 1300,
      "reat": 1301,
      "ablish": 1302,
      "posi": 1303,
      "pite": 1304,
      "establish": 1305,
      "incorpor": 1306,
      "emo": 1307,
      "obser": 1308,
      "paradigm": 1309,
      "dialo": 1310,
      "ences": 1311,
      "agnos": 1312,
      "10": 1313,
      "tran": 1314,
      "development": 1315,
      "evaluations": 1316,
      "consistent": 1317,
      "que": 1318,
      "exter": 1319,
      "space": 1320,
      "ources": 1321,
      "whether": 1322,
      "down": 1323,
      "increasingly": 1324,
      "nec": 1325,
      "ases": 1326,
      "NLP": 1327,
      "wr": 1328,
      "polic": 1329,
      "wide": 1330,
      "generating": 1331,
      "synthetic": 1332,
      "expert": 1333,
      "introduces": 1334,
      "examp": 1335,
      "ressive": 1336,
      "post": 1337,
      "ength": 1338,
      "reliable": 1339,
      "queries": 1340,
      "evaluating": 1341,
      "four": 1342,
      "improving": 1343,
      "baseline": 1344,
      "external": 1345,
      "stage": 1346,
      "veri": 1347,
      "generalization": 1348,
      "social": 1349,
      "ially": 1350,
      "highlight": 1351,
      "tools": 1352,
      "ast": 1353,
      "sensi": 1354,
      "oration": 1355,
      "combin": 1356,
      "response": 1357,
      "SA": 1358,
      "length": 1359,
      "factual": 1360,
      "metric": 1361,
      "oral": 1362,
      "proposed": 1363,
      "tribut": 1364,
      "viron": 1365,
      "recent": 1366,
      "driven": 1367,
      "face": 1368,
      "coll": 1369,
      "iel": 1370,
      "improvements": 1371,
      "may": 1372,
      "automatic": 1373,
      "func": 1374,
      "compon": 1375,
      "parameters": 1376,
      "herent": 1377,
      "structure": 1378,
      "environ": 1379,
      "leading": 1380,
      "cal": 1381,
      "scores": 1382,
      "light": 1383,
      "supervised": 1384,
      "modeling": 1385,
      "Al": 1386,
      "gorith": 1387,
      "internal": 1388,
      "objec": 1389,
      "match": 1390,
      "Exten": 1391,
      "flu": 1392,
      "fil": 1393,
      "exam": 1394,
      "evidence": 1395,
      "contin": 1396,
      "query": 1397,
      "prog": 1398,
      "concep": 1399,
      "bf": 1400,
      "reflec": 1401,
      "ematic": 1402,
      "consistency": 1403,
      "mechanism": 1404,
      "ii": 1405,
      "versity": 1406,
      "Qw": 1407,
      "zero": 1408,
      "uning": 1409,
      "feed": 1410,
      "review": 1411,
      "answering": 1412,
      "indic": 1413,
      "tors": 1414,
      "systematically": 1415,
      "path": 1416,
      "play": 1417,
      "automated": 1418,
      "Se": 1419,
      "algorith": 1420,
      "As": 1421,
      "way": 1422,
      "ell": 1423,
      "yiel": 1424,
      "visual": 1425,
      "struggle": 1426,
      "Furthermore": 1427,
      "average": 1428,
      "Extensive": 1429,
      "evol": 1430,
      "grained": 1431,
      "Qwen": 1432,
      "extensive": 1433,
      "char": 1434,
      "prob": 1435,
      "follow": 1436,
      "problems": 1437,
      "Un": 1438,
      "pos": 1439,
      "Existing": 1440,
      "again": 1441,
      "about": 1442,
      "lar": 1443,
      "improvement": 1444,
      "dynamic": 1445,
      "It": 1446,
      "deployment": 1447,
      "textbf": 1448,
      "Spec": 1449,
      "sent": 1450,
      "relations": 1451,
      "Recent": 1452,
      "lex": 1453,
      "score": 1454,
      "lying": 1455,
      "wers": 1456,
      "contexts": 1457,
      "Transform": 1458,
      "ants": 1459,
      "mathematic": 1460,
      "simple": 1461,
      "against": 1462,
      "wards": 1463,
      "higher": 1464,
      "health": 1465,
      "decision": 1466,
      "allow": 1467,
      "reinforcement": 1468,
      "AS": 1469,
      "Fin": 1470,
      "dem": 1471,
      "For": 1472,
      "diversity": 1473,
      "exp": 1474,
      "feedback": 1475,
      "vious": 1476,
      "CL": 1477,
      "25": 1478,
      "distinc": 1479,
      "rich": 1480,
      "usal": 1481,
      "Gener": 1482,
      "common": 1483,
      "contextual": 1484,
      "architecture": 1485,
      "izes": 1486,
      "advance": 1487,
      "synthes": 1488,
      "fund": 1489,
      "grad": 1490,
      "complexity": 1491,
      "Deep": 1492,
      "ger": 1493,
      "preference": 1494,
      "rop": 1495,
      "thin": 1496,
      "acter": 1497,
      "compo": 1498,
      "leverages": 1499,
      "care": 1500,
      "related": 1501,
      "ama": 1502,
      "types": 1503,
      "best": 1504,
      "exec": 1505,
      "augmented": 1506,
      "cate": 1507,
      "target": 1508,
      "funda": 1509,
      "activ": 1510,
      "ression": 1511,
      "reliability": 1512,
      "ulti": 1513,
      "bre": 1514,
      "ber": 1515,
      "prediction": 1516,
      "investigate": 1517,
      "inal": 1518,
      "irical": 1519,
      "utili": 1520,
      "scaling": 1521,
      "short": 1522,
      "answers": 1523,
      "specialized": 1524,
      "go": 1525,
      "transformer": 1526,
      "acks": 1527,
      "Multi": 1528,
      "policy": 1529,
      "gains": 1530,
      "character": 1531,
      "tru": 1532,
      "solution": 1533,
      "downstream": 1534,
      "scienti": 1535,
      "action": 1536,
      "mechanisms": 1537,
      "lement": 1538,
      "reveals": 1539,
      "harm": 1540,
      "users": 1541,
      "traditional": 1542,
      "sible": 1543,
      "substantial": 1544,
      "repor": 1545,
      "implic": 1546,
      "demonstrated": 1547,
      "interactions": 1548,
      "hand": 1549,
      "priv": 1550,
      "selection": 1551,
      "capture": 1552,
      "offers": 1553,
      "soci": 1554,
      "sty": 1555,
      "ired": 1556,
      "range": 1557,
      "layers": 1558,
      "continu": 1559,
      "Ll": 1560,
      "free": 1561,
      "ix": 1562,
      "biases": 1563,
      "leg": 1564,
      "primar": 1565,
      "Ag": 1566,
      "still": 1567,
      "role": 1568,
      "cruc": 1569,
      "few": 1570,
      "gram": 1571,
      "ellig": 1572,
      "promising": 1573,
      "Llama": 1574,
      "capability": 1575,
      "enhancing": 1576,
      "ipl": 1577,
      "ond": 1578,
      "pairs": 1579,
      "KG": 1580,
      "superi": 1581,
      "signals": 1582,
      "layer": 1583,
      "superior": 1584,
      "ensu": 1585,
      "alle": 1586,
      "crucial": 1587,
      "uncertain": 1588,
      "sch": 1589,
      "ification": 1590,
      "providing": 1591,
      "cultural": 1592,
      "typically": 1593,
      "Experimental": 1594,
      "cel": 1595,
      "xim": 1596,
      "orig": 1597,
      "estim": 1598,
      "scientific": 1599,
      "ben": 1600,
      "decoding": 1601,
      "AR": 1602,
      "sever": 1603,
      "bro": 1604,
      "read": 1605,
      "pus": 1606,
      "ditionally": 1607,
      "espec": 1608,
      "textual": 1609,
      "especially": 1610,
      "ded": 1611,
      "error": 1612,
      "personal": 1613,
      "full": 1614,
      "base": 1615,
      "ferences": 1616,
      "ible": 1617,
      "gi": 1618,
      "net": 1619,
      "aligned": 1620,
      "flow": 1621,
      "defin": 1622,
      "ator": 1623,
      "distribution": 1624,
      "agnostic": 1625,
      "achine": 1626,
      "yond": 1627,
      "iterative": 1628,
      "lightweight": 1629,
      "hip": 1630,
      "mb": 1631,
      "engine": 1632,
      "many": 1633,
      "impact": 1634,
      "iring": 1635,
      "ced": 1636,
      "toward": 1637,
      "expres": 1638,
      "minim": 1639,
      "reducing": 1640,
      "document": 1641,
      "directly": 1642,
      "sions": 1643,
      "offering": 1644,
      "An": 1645,
      "LL": 1646,
      "mean": 1647,
      "Ar": 1648,
      "zing": 1649,
      "7B": 1650,
      "Using": 1651,
      "More": 1652,
      "disc": 1653,
      "collab": 1654,
      "fr": 1655,
      "maintaining": 1656,
      "RM": 1657,
      "demonstrating": 1658,
      "wise": 1659,
      "ased": 1660,
      "embeddings": 1661,
      "uses": 1662,
      "architectures": 1663,
      "grounded": 1664,
      "dialogue": 1665,
      "extraction": 1666,
      "ended": 1667,
      "zation": 1668,
      "indi": 1669,
      "adop": 1670,
      "ather": 1671,
      "enhances": 1672,
      "texts": 1673,
      "representation": 1674,
      "documents": 1675,
      "preserving": 1676,
      "requires": 1677,
      "olic": 1678,
      "4o": 1679,
      "constrain": 1680,
      "Gem": 1681,
      "trust": 1682,
      "Des": 1683,
      "F1": 1684,
      "integrates": 1685,
      "confidence": 1686,
      "cognition": 1687,
      "hallucinations": 1688,
      "ators": 1689,
      "pose": 1690,
      "essential": 1691,
      "previous": 1692,
      "Comp": 1693,
      "leveraging": 1694,
      "loss": 1695,
      "call": 1696,
      "ints": 1697,
      "five": 1698,
      "princ": 1699,
      "distinct": 1700,
      "hel": 1701,
      "atis": 1702,
      "optimal": 1703,
      "Specific": 1704,
      "theore": 1705,
      "methodo": 1706,
      "ier": 1707,
      "ately": 1708,
      "implement": 1709,
      "errors": 1710,
      "ions": 1711,
      "nar": 1712,
      "Qu": 1713,
      "spe": 1714,
      "ulner": 1715,
      "ern": 1716,
      "mathematical": 1717,
      "presents": 1718,
      "demonstrates": 1719,
      "explore": 1720,
      "several": 1721,
      "ST": 1722,
      "cases": 1723,
      "produce": 1724,
      "$\\": 1725,
      "annotated": 1726,
      "gentic": 1727,
      "value": 1728,
      "ive": 1729,
      "size": 1730,
      "categor": 1731,
      "vulner": 1732,
      "samples": 1733,
      "power": 1734,
      "embedding": 1735,
      "advanced": 1736,
      "Through": 1737,
      "od": 1738,
      "dio": 1739,
      "versari": 1740,
      "shif": 1741,
      "local": 1742,
      "Specifically": 1743,
      "broad": 1744,
      "evaluated": 1745,
      "eti": 1746,
      "uld": 1747,
      "weigh": 1748,
      "Retri": 1749,
      "neg": 1750,
      "moder": 1751,
      "rap": 1752,
      "achieved": 1753,
      "examples": 1754,
      "usion": 1755,
      "collec": 1756,
      "attack": 1757,
      "ever": 1758,
      "influ": 1759,
      "eck": 1760,
      "cognitive": 1761,
      "uncertainty": 1762,
      "tes": 1763,
      "loo": 1764,
      "dates": 1765,
      "spar": 1766,
      "components": 1767,
      "dra": 1768,
      "ang": 1769,
      "ject": 1770,
      "ML": 1771,
      "ming": 1772,
      "invol": 1773,
      "versarial": 1774,
      "interpretability": 1775,
      "conduct": 1776,
      "Cl": 1777,
      "any": 1778,
      "Code": 1779,
      "hallucination": 1780,
      "Additionally": 1781,
      "appli": 1782,
      "sensitive": 1783,
      "privacy": 1784,
      "intellig": 1785,
      "progress": 1786,
      "gest": 1787,
      "lity": 1788,
      "shows": 1789,
      "term": 1790,
      "class": 1791,
      "fix": 1792,
      "fundamental": 1793,
      "equ": 1794,
      "requiring": 1795,
      "rapid": 1796,
      "vey": 1797,
      "udge": 1798,
      "judg": 1799,
      "attacks": 1800,
      "legal": 1801,
      "machine": 1802,
      "same": 1803,
      "competi": 1804,
      "advances": 1805,
      "interpretable": 1806,
      "agg": 1807,
      "descri": 1808,
      "transfer": 1809,
      "issues": 1810,
      "ficient": 1811,
      "assessment": 1812,
      "interaction": 1813,
      "construct": 1814,
      "remark": 1815,
      "improved": 1816,
      "individ": 1817,
      "assist": 1818,
      "aims": 1819,
      "QL": 1820,
      "amb": 1821,
      "encies": 1822,
      "fies": 1823,
      "highlighting": 1824,
      "zed": 1825,
      "refine": 1826,
      "reduces": 1827,
      "become": 1828,
      "some": 1829,
      "frequ": 1830,
      "eous": 1831,
      "planning": 1832,
      "RE": 1833,
      "computation": 1834,
      "Retrieval": 1835,
      "inherent": 1836,
      "rate": 1837,
      "retriev": 1838,
      "temporal": 1839,
      "St": 1840,
      "den": 1841,
      "corpus": 1842,
      "publicly": 1843,
      "Despite": 1844,
      "enable": 1845,
      "importance": 1846,
      "altern": 1847,
      "Reas": 1848,
      "SFT": 1849,
      "conver": 1850,
      "latent": 1851,
      "degrad": 1852,
      "generative": 1853,
      "final": 1854,
      "Med": 1855,
      "agentic": 1856,
      "ia": 1857,
      "formal": 1858,
      "adaptive": 1859,
      "LoRA": 1860,
      "ising": 1861,
      "group": 1862,
      "unified": 1863,
      "zes": 1864,
      "original": 1865,
      "ME": 1866,
      "verification": 1867,
      "word": 1868,
      "allel": 1869,
      "rig": 1870,
      "12": 1871,
      "reference": 1872,
      "grow": 1873,
      "exploration": 1874,
      "adaptation": 1875,
      "facil": 1876,
      "Moreover": 1877,
      "individual": 1878,
      "Res": 1879,
      "web": 1880,
      "explan": 1881,
      "surpass": 1882,
      "thought": 1883,
      "Transformer": 1884,
      "scoring": 1885,
      "detail": 1886,
      "rather": 1887,
      "adversarial": 1888,
      "deep": 1889,
      "ules": 1890,
      "similarity": 1891,
      "comes": 1892,
      "communic": 1893,
      "facilit": 1894,
      "Evalu": 1895,
      "Agent": 1896,
      "remarkable": 1897,
      "ini": 1898,
      "harmful": 1899,
      "inst": 1900,
      "chain": 1901,
      "shown": 1902,
      "ature": 1903,
      "points": 1904,
      "foundation": 1905,
      "ropy": 1906,
      "format": 1907,
      "analyze": 1908,
      "integration": 1909,
      "dimensions": 1910,
      "ived": 1911,
      "guided": 1912,
      "tit": 1913,
      "were": 1914,
      "empirical": 1915,
      "dynamically": 1916,
      "ierarch": 1917,
      "pur": 1918,
      "cise": 1919,
      "ficial": 1920,
      "difficulty": 1921,
      "sugges": 1922,
      "ins": 1923,
      "ones": 1924,
      "conc": 1925,
      "trade": 1926,
      "number": 1927,
      "fam": 1928,
      "compression": 1929,
      "verifi": 1930,
      "perspec": 1931,
      "necess": 1932,
      "Finally": 1933,
      "mitigate": 1934,
      "SQL": 1935,
      "tives": 1936,
      "cond": 1937,
      "gence": 1938,
      "tically": 1939,
      "rank": 1940,
      "vec": 1941,
      "resources": 1942,
      "consi": 1943,
      "ered": 1944,
      "instructions": 1945,
      "larger": 1946,
      "primarily": 1947,
      "See": 1948,
      "annotation": 1949,
      "8B": 1950,
      "mal": 1951,
      "ough": 1952,
      "uce": 1953,
      "vary": 1954,
      "ono": 1955,
      "ask": 1956,
      "additional": 1957,
      "beyond": 1958,
      "educ": 1959,
      "boo": 1960,
      "utility": 1961,
      "glo": 1962,
      "sequence": 1963,
      "engineering": 1964,
      "Au": 1965,
      "entiment": 1966,
      "AP": 1967,
      "parallel": 1968,
      "ibr": 1969,
      "R1": 1970,
      "along": 1971,
      "highly": 1972,
      "meaning": 1973,
      "tail": 1974,
      "structural": 1975,
      "fiel": 1976,
      "sampling": 1977,
      "dimension": 1978,
      "algorithm": 1979,
      "jo": 1980,
      "ually": 1981,
      "latency": 1982,
      "widely": 1983,
      "principl": 1984,
      "igu": 1985,
      "Chin": 1986,
      "MC": 1987,
      "important": 1988,
      "thinking": 1989,
      "inary": 1990,
      "bility": 1991,
      "Seek": 1992,
      "TA": 1993,
      "reduce": 1994,
      "ranking": 1995,
      "On": 1996,
      "workflow": 1997,
      "overall": 1998,
      "steps": 1999,
      "linear": 2000,
      "overloo": 2001,
      "composi": 2002,
      "was": 2003,
      "thereby": 2004,
      "given": 2005,
      "Sy": 2006,
      "Gr": 2007,
      "initi": 2008,
      "environments": 2009,
      "preferences": 2010,
      "Generation": 2011,
      "risk": 2012,
      "KV": 2013,
      "implicit": 2014,
      "inputs": 2015,
      "conversational": 2016,
      "24": 2017,
      "GR": 2018,
      "cy": 2019,
      "fusion": 2020,
      "costs": 2021,
      "comparable": 2022,
      "substantially": 2023,
      "Sp": 2024,
      "With": 2025,
      "those": 2026,
      "humans": 2027,
      "relative": 2028,
      "access": 2029,
      "vision": 2030,
      "rout": 2031,
      "TS": 2032,
      "causal": 2033,
      "suggest": 2034,
      "000": 2035,
      "LLa": 2036,
      "online": 2037,
      "entropy": 2038,
      "largely": 2039,
      "tivity": 2040,
      "Eval": 2041,
      "sentiment": 2042,
      "among": 2043,
      "DeepSeek": 2044,
      "ian": 2045,
      "aren": 2046,
      "function": 2047,
      "relationship": 2048,
      "constraints": 2049,
      "constrained": 2050,
      "benef": 2051,
      "integrating": 2052,
      "%,": 2053,
      "liter": 2054,
      "matic": 2055,
      "will": 2056,
      "compris": 2057,
      "correc": 2058,
      "hierarch": 2059,
      "At": 2060,
      "help": 2061,
      "enhanced": 2062,
      "feature": 2063,
      "Chinese": 2064,
      "employs": 2065,
      "tax": 2066,
      "sentence": 2067,
      "nor": 2068,
      "pati": 2069,
      "ulation": 2070,
      "pop": 2071,
      "fair": 2072,
      "measure": 2073,
      "PE": 2074,
      "behaviors": 2075,
      "summarization": 2076,
      "solutions": 2077,
      "validate": 2078,
      "calibr": 2079,
      "Ro": 2080,
      "ored": 2081,
      "six": 2082,
      "filter": 2083,
      "SE": 2084,
      "bound": 2085,
      "lower": 2086,
      "hard": 2087,
      "generates": 2088,
      "release": 2089,
      "ious": 2090,
      "jor": 2091,
      "issue": 2092,
      "affec": 2093,
      "ft": 2094,
      "relation": 2095,
      "proper": 2096,
      "objective": 2097,
      "mous": 2098,
      "levels": 2099,
      "encoder": 2100,
      "herence": 2101,
      "ambigu": 2102,
      "hist": 2103,
      "attribut": 2104,
      "coding": 2105,
      "demand": 2106,
      "scri": 2107,
      "reng": 2108,
      "explored": 2109,
      "survey": 2110,
      "cach": 2111,
      "confir": 2112,
      "resulting": 2113,
      "transp": 2114,
      "rigor": 2115,
      "Augment": 2116,
      "streng": 2117,
      "combines": 2118,
      "Lear": 2119,
      "mediate": 2120,
      "Auto": 2121,
      "case": 2122,
      "experts": 2123,
      "risks": 2124,
      "competitive": 2125,
      "nu": 2126,
      "vo": 2127,
      "focused": 2128,
      "sk": 2129,
      "fying": 2130,
      "application": 2131,
      "comparis": 2132,
      "global": 2133,
      "MI": 2134,
      "just": 2135,
      "sof": 2136,
      "ibility": 2137,
      "ailbre": 2138,
      "smaller": 2139,
      "frameworks": 2140,
      "major": 2141,
      "unde": 2142,
      "ither": 2143,
      "numer": 2144,
      "fulness": 2145,
      "applied": 2146,
      "ders": 2147,
      "corpor": 2148,
      "specifically": 2149,
      "outperforming": 2150,
      "ensure": 2151,
      "great": 2152,
      "table": 2153,
      "mix": 2154,
      "onom": 2155,
      "rewards": 2156,
      "apply": 2157,
      "minimal": 2158,
      "joint": 2159,
      "ient": 2160,
      "dule": 2161,
      "ses": 2162,
      "times": 2163,
      "realistic": 2164,
      "hybrid": 2165,
      "Instruc": 2166,
      "safe": 2167,
      "emerged": 2168,
      "powerful": 2169,
      "50": 2170,
      "dated": 2171,
      "curated": 2172,
      "dual": 2173,
      "13": 2174,
      "MT": 2175,
      "recomm": 2176,
      "hypo": 2177,
      "dependent": 2178,
      "Optim": 2179,
      "hop": 2180,
      "concern": 2181,
      "order": 2182,
      "overhead": 2183,
      "suffer": 2184,
      "def": 2185,
      "image": 2186,
      "faith": 2187,
      "choice": 2188,
      "writing": 2189,
      "Gemini": 2190,
      "statis": 2191,
      "processes": 2192,
      "memor": 2193,
      "tribution": 2194,
      "spanning": 2195,
      "audio": 2196,
      "narr": 2197,
      "Reasoning": 2198,
      "acity": 2199,
      "explain": 2200,
      "science": 2201,
      "style": 2202,
      "Graph": 2203,
      "aspec": 2204,
      "guide": 2205,
      "neural": 2206,
      "identifying": 2207,
      "explicitly": 2208,
      "phen": 2209,
      "contribut": 2210,
      "performing": 2211,
      "psy": 2212,
      "vali": 2213,
      "communication": 2214,
      "Not": 2215,
      "Text": 2216,
      "gan": 2217,
      "omen": 2218,
      "dynamics": 2219,
      "GRPO": 2220,
      "Augmented": 2221,
      "14": 2222,
      "correctness": 2223,
      "execution": 2224,
      "cand": 2225,
      "symb": 2226,
      "clust": 2227,
      "solving": 2228,
      "Open": 2229,
      "ging": 2230,
      "capable": 2231,
      "difficult": 2232,
      "leverage": 2233,
      "associ": 2234,
      "counter": 2235,
      "Ac": 2236,
      "alternative": 2237,
      "scrip": 2238,
      "jailbre": 2239,
      "static": 2240,
      "abstr": 2241,
      "tend": 2242,
      "known": 2243,
      "depth": 2244,
      "rigorous": 2245,
      "Learning": 2246,
      "Buil": 2247,
      "ICL": 2248,
      "reason": 2249,
      "complement": 2250,
      "following": 2251,
      "rex": 2252,
      "discover": 2253,
      "underex": 2254,
      "weak": 2255,
      "distill": 2256,
      "consider": 2257,
      "LE": 2258,
      "lin": 2259,
      "intelligence": 2260,
      "hypothes": 2261,
      "recognition": 2262,
      "make": 2263,
      "graphs": 2264,
      "},": 2265,
      "side": 2266,
      "values": 2267,
      "labels": 2268,
      "module": 2269,
      "gradi": 2270,
      "underlying": 2271,
      "fact": 2272,
      "annotations": 2273,
      "initial": 2274,
      "proto": 2275,
      "clud": 2276,
      "respec": 2277,
      "CO": 2278,
      "len": 2279,
      "underexplo": 2280,
      "ices": 2281,
      "nov": 2282,
      "pretraining": 2283,
      "derived": 2284,
      "varying": 2285,
      "tle": 2286,
      "round": 2287,
      "forms": 2288,
      "type": 2289,
      "corpora": 2290,
      "either": 2291,
      "flex": 2292,
      "pruning": 2293,
      "underexplored": 2294,
      "rates": 2295,
      "etary": 2296,
      "interven": 2297,
      "intermediate": 2298,
      "judge": 2299,
      "controlled": 2300,
      "theoretical": 2301,
      "transparen": 2302,
      "CE": 2303,
      "intensive": 2304,
      "ensuring": 2305,
      "sparse": 2306,
      "LLaMA": 2307,
      "Cur": 2308,
      "ancial": 2309,
      "nature": 2310,
      "automatically": 2311,
      "Di": 2312,
      "Though": 2313,
      "being": 2314,
      "precision": 2315,
      "descrip": 2316,
      "Know": 2317,
      "closed": 2318,
      "ASR": 2319,
      "phenomen": 2320,
      "sources": 2321,
      "}$": 2322,
      "row": 2323,
      "cour": 2324,
      "continuous": 2325,
      "tailored": 2326,
      "diagnostic": 2327,
      "compute": 2328,
      "targeted": 2329,
      "influence": 2330,
      "onomy": 2331,
      "tex": 2332,
      "sequences": 2333,
      "validation": 2334,
      "yields": 2335,
      "truth": 2336,
      "collabor": 2337,
      "Notably": 2338,
      "organ": 2339,
      "ults": 2340,
      "ditions": 2341,
      "combining": 2342,
      "intr": 2343,
      "showing": 2344,
      "Chain": 2345,
      "sets": 2346,
      "developing": 2347,
      "purpose": 2348,
      "point": 2349,
      "complete": 2350,
      "gaps": 2351,
      "categories": 2352,
      "Optimization": 2353,
      "innov": 2354,
      "classifi": 2355,
      "aggreg": 2356,
      "Dis": 2357,
      "plat": 2358,
      "capacity": 2359,
      "ension": 2360,
      "limitation": 2361,
      "textit": 2362,
      "ata": 2363,
      "ause": 2364,
      "het": 2365,
      "logies": 2366,
      "propri": 2367,
      "precise": 2368,
      "istics": 2369,
      "covering": 2370,
      "incorporating": 2371,
      "og": 2372,
      "effor": 2373,
      "structures": 2374,
      "construction": 2375,
      "highlights": 2376,
      "trustwor": 2377,
      "GE": 2378,
      "aut": 2379,
      "despite": 2380,
      "differences": 2381,
      "practi": 2382,
      "recommend": 2383,
      "eth": 2384,
      "recall": 2385,
      "100": 2386,
      "uch": 2387,
      "stable": 2388,
      "decis": 2389,
      "ital": 2390,
      "Although": 2391,
      "70": 2392,
      "reproduc": 2393,
      "geo": 2394,
      "connec": 2395,
      "developed": 2396,
      "Fir": 2397,
      "hid": 2398,
      "refin": 2399,
      "deli": 2400,
      "spired": 2401,
      "advant": 2402,
      "16": 2403,
      "Me": 2404,
      "RO": 2405,
      "approxim": 2406,
      "directions": 2407,
      "jector": 2408,
      "weights": 2409,
      "hierarchical": 2410,
      "proprietary": 2411,
      "ule": 2412,
      "ustom": 2413,
      "variants": 2414,
      "methodology": 2415,
      "First": 2416,
      "program": 2417,
      "financial": 2418,
      "experimental": 2419,
      "relevance": 2420,
      "synthesis": 2421,
      "symbolic": 2422,
      "ral": 2423,
      "ater": 2424,
      "ID": 2425,
      "unders": 2426,
      "trast": 2427,
      "MLLMs": 2428,
      "atch": 2429,
      "teach": 2430,
      "retrieved": 2431,
      "conditions": 2432,
      "terms": 2433,
      "box": 2434,
      "Arab": 2435,
      "Thought": 2436,
      "SO": 2437,
      "includ": 2438,
      "aries": 2439,
      "ute": 2440,
      "words": 2441,
      "updates": 2442,
      "emotional": 2443,
      "Unlike": 2444,
      "celer": 2445,
      "modern": 2446,
      "CA": 2447,
      "bef": 2448,
      "aining": 2449,
      "building": 2450,
      "psycho": 2451,
      "demo": 2452,
      "contr": 2453,
      "emotion": 2454,
      "istr": 2455,
      "states": 2456,
      "ism": 2457,
      "contrast": 2458,
      "termin": 2459,
      "balance": 2460,
      "discus": 2461,
      "15": 2462,
      "tier": 2463,
      "ord": 2464,
      "guidance": 2465,
      "promise": 2466,
      "famil": 2467,
      "onomous": 2468,
      "before": 2469,
      "acceler": 2470,
      "leads": 2471,
      "quantization": 2472,
      "defined": 2473,
      "argu": 2474,
      "poor": 2475,
      "Chat": 2476,
      "Results": 2477,
      "auth": 2478,
      "speed": 2479,
      "does": 2480,
      "predictions": 2481,
      "bridge": 2482,
      "hidden": 2483,
      "eas": 2484,
      "induc": 2485,
      "seen": 2486,
      "near": 2487,
      "coverage": 2488,
      "observe": 2489,
      "fixed": 2490,
      "oth": 2491,
      "media": 2492,
      "schem": 2493,
      "VR": 2494,
      "tac": 2495,
      "tab": 2496,
      "compare": 2497,
      "entity": 2498,
      "sufficient": 2499,
      "growing": 2500,
      "field": 2501,
      "resol": 2502,
      "concerns": 2503,
      "Based": 2504,
      "iv": 2505,
      "sump": 2506,
      "%.": 2507,
      "32": 2508,
      "turally": 2509,
      "unique": 2510,
      "2025": 2511,
      "fron": 2512,
      "cache": 2513,
      "ination": 2514,
      "usage": 2515,
      "early": 2516,
      "custom": 2517,
      "centric": 2518,
      "supervision": 2519,
      "Emp": 2520,
      "phas": 2521,
      "secur": 2522,
      "persist": 2523,
      "aude": 2524,
      "emphas": 2525,
      "perspective": 2526,
      "strength": 2527,
      "30": 2528,
      "ys": 2529,
      "deb": 2530,
      "spati": 2531,
      "scar": 2532,
      "composition": 2533,
      "patient": 2534,
      "Instruct": 2535,
      "jectories": 2536,
      "arti": 2537,
      "andom": 2538,
      "suit": 2539,
      "trajectories": 2540,
      "conflic": 2541,
      "Arabic": 2542,
      "ware": 2543,
      "appropri": 2544,
      "factors": 2545,
      "news": 2546,
      "orient": 2547,
      "semantically": 2548,
      "Gu": 2549,
      "separ": 2550,
      "detect": 2551,
      "Building": 2552,
      "dec": 2553,
      "indicate": 2554,
      "Knowledge": 2555,
      "concept": 2556,
      "Current": 2557,
      "autonomous": 2558,
      "decisions": 2559,
      "injec": 2560,
      "editing": 2561,
      "artic": 2562,
      "conven": 2563,
      "stric": 2564,
      "analyses": 2565,
      "akes": 2566,
      "pipelines": 2567,
      "healthcare": 2568,
      "Claude": 2569,
      "Bi": 2570,
      "atives": 2571,
      "tox": 2572,
      "evaluates": 2573,
      "skill": 2574,
      "Per": 2575,
      "poli": 2576,
      "Reinforcement": 2577,
      "security": 2578,
      "date": 2579,
      "wid": 2580,
      "stead": 2581,
      "Ver": 2582,
      "win": 2583,
      "hol": 2584,
      "shared": 2585,
      "algorithms": 2586,
      "lation": 2587,
      "voc": 2588,
      "ises": 2589,
      "active": 2590,
      "manual": 2591,
      "semantics": 2592,
      "graphic": 2593,
      "explanations": 2594,
      "ingu": 2595,
      "see": 2596,
      "ttlen": 2597,
      "valuable": 2598,
      "refinement": 2599,
      "verifiable": 2600,
      "calibration": 2601,
      "ster": 2602,
      "coherence": 2603,
      "19": 2604,
      "run": 2605,
      "agree": 2606,
      "advancements": 2607,
      "aca": 2608,
      "fore": 2609,
      "grounding": 2610,
      "incorporates": 2611,
      "RMs": 2612,
      "Pre": 2613,
      "certain": 2614,
      "ings": 2615,
      "get": 2616,
      "excel": 2617,
      "evolving": 2618,
      "SM": 2619,
      "redund": 2620,
      "correspon": 2621,
      "series": 2622,
      "writ": 2623,
      "course": 2624,
      "incorrect": 2625,
      "budge": 2626,
      "assign": 2627,
      "actions": 2628,
      "erest": 2629,
      "scalability": 2630,
      "efficiently": 2631,
      "addresses": 2632,
      "taxonomy": 2633,
      "18": 2634,
      "neur": 2635,
      "researchers": 2636,
      "sample": 2637,
      "erogen": 2638,
      "dimensional": 2639,
      "popular": 2640,
      "distillation": 2641,
      "ped": 2642,
      "addition": 2643,
      "agement": 2644,
      "emer": 2645,
      "elf": 2646,
      "analyzing": 2647,
      "advancing": 2648,
      "revealing": 2649,
      "increase": 2650,
      "built": 2651,
      "steering": 2652,
      "literature": 2653,
      "intent": 2654,
      "limiting": 2655,
      "facilitate": 2656,
      "LA": 2657,
      "limits": 2658,
      "negative": 2659,
      "fairness": 2660,
      "itive": 2661,
      "reduction": 2662,
      "extract": 2663,
      "topic": 2664,
      "community": 2665,
      "allows": 2666,
      "complementary": 2667,
      "IR": 2668,
      "student": 2669,
      "regressive": 2670,
      "Fine": 2671,
      "Ne": 2672,
      "impressive": 2673,
      "integrated": 2674,
      "predict": 2675,
      "detailed": 2676,
      "protocol": 2677,
      "SP": 2678,
      "igur": 2679,
      "interactive": 2680,
      "position": 2681,
      "correction": 2682,
      "what": 2683,
      "entities": 2684,
      "examine": 2685,
      "ash": 2686,
      "acces": 2687,
      "sus": 2688,
      "bottlen": 2689,
      "finet": 2690,
      "distingu": 2691,
      "after": 2692,
      "degradation": 2693,
      "relationships": 2694,
      "distinguish": 2695,
      "prev": 2696,
      "signal": 2697,
      "ception": 2698,
      "pertur": 2699,
      "next": 2700,
      "rational": 2701,
      "phys": 2702,
      "failure": 2703,
      "central": 2704,
      "labeled": 2705,
      "reflect": 2706,
      "heterogen": 2707,
      "11": 2708,
      "RI": 2709,
      "delity": 2710,
      "RLVR": 2711,
      "gender": 2712,
      "23": 2713,
      "Across": 2714,
      "example": 2715,
      "rule": 2716,
      "coherent": 2717,
      "compos": 2718,
      "lion": 2719,
      "part": 2720,
      "Adap": 2721,
      "conversations": 2722,
      "conducted": 2723,
      "collaborative": 2724,
      "includes": 2725,
      "ik": 2726,
      "raw": 2727,
      "discre": 2728,
      "persona": 2729,
      "personalized": 2730,
      "gradient": 2731,
      "ends": 2732,
      "sec": 2733,
      "datab": 2734,
      "applying": 2735,
      "workflows": 2736,
      "nuanced": 2737,
      "law": 2738,
      "reach": 2739,
      "item": 2740,
      "gether": 2741,
      "modular": 2742,
      "beli": 2743,
      "result": 2744,
      "addressing": 2745,
      "reliance": 2746,
      "assessing": 2747,
      "concepts": 2748,
      "evolution": 2749,
      "optimized": 2750,
      "technique": 2751,
      "distributions": 2752,
      "suggesting": 2753,
      "oriented": 2754,
      "clear": 2755,
      "must": 2756,
      "chat": 2757,
      "effects": 2758,
      "generaliz": 2759,
      "histor": 2760,
      "dustr": 2761,
      "Qwen2": 2762,
      "prof": 2763,
      "effect": 2764,
      "percent": 2765,
      "cons": 2766,
      "fidelity": 2767,
      "obtain": 2768,
      "sensitivity": 2769,
      "poses": 2770,
      "testing": 2771,
      "MoE": 2772,
      "video": 2773,
      "particip": 2774,
      "tative": 2775,
      "remo": 2776,
      "til": 2777,
      "ceed": 2778,
      "expec": 2779,
      "idate": 2780,
      "facts": 2781,
      "mak": 2782,
      "benefits": 2783,
      "conventional": 2784,
      "Po": 2785,
      "random": 2786,
      "tially": 2787,
      "stability": 2788,
      "Search": 2789,
      "insic": 2790,
      "spatial": 2791,
      "ape": 2792,
      "loop": 2793,
      "plan": 2794,
      "cues": 2795,
      "matching": 2796,
      "ways": 2797,
      "bloc": 2798,
      "forward": 2799,
      "scales": 2800,
      "aligning": 2801,
      "direction": 2802,
      "Long": 2803,
      "tal": 2804,
      "traces": 2805,
      "decoder": 2806,
      "ardi": 2807,
      "ancy": 2808,
      "activation": 2809,
      "reports": 2810,
      "overlook": 2811,
      "40": 2812,
      "oid": 2813,
      "tan": 2814,
      "itation": 2815,
      "techno": 2816,
      "sequential": 2817,
      "Promp": 2818,
      "augmentation": 2819,
      "boost": 2820,
      "frontier": 2821,
      "CT": 2822,
      "bit": 2823,
      "increases": 2824,
      "create": 2825,
      "introducing": 2826,
      "accurately": 2827,
      "ethical": 2828,
      "SLMs": 2829,
      "isol": 2830,
      "generalize": 2831,
      "changes": 2832,
      "provided": 2833,
      "commer": 2834,
      "topics": 2835,
      "environment": 2836,
      "shifts": 2837,
      "jailbreak": 2838,
      "political": 2839,
      "mas": 2840,
      "sizes": 2841,
      "costly": 2842,
      "own": 2843,
      "retain": 2844,
      "manip": 2845,
      "pretrained": 2846,
      "judgments": 2847,
      "DPO": 2848,
      "demic": 2849,
      "families": 2850,
      "Be": 2851,
      "identifies": 2852,
      "integrate": 2853,
      "requirements": 2854,
      "comparison": 2855,
      "industr": 2856,
      "thus": 2857,
      "could": 2858,
      "unlearning": 2859,
      "required": 2860,
      "insight": 2861,
      "paths": 2862,
      "Score": 2863,
      "performs": 2864,
      "subjec": 2865,
      "supporting": 2866,
      "configur": 2867,
      "sentences": 2868,
      "collaboration": 2869,
      "taneous": 2870,
      "Le": 2871,
      "itative": 2872,
      "neu": 2873,
      "syntac": 2874,
      "relying": 2875,
      "component": 2876,
      "bil": 2877,
      "thy": 2878,
      "inef": 2879,
      "outcomes": 2880,
      "serv": 2881,
      "Human": 2882,
      "fall": 2883,
      "rules": 2884,
      "interest": 2885,
      "optimize": 2886,
      "deployed": 2887,
      "filtering": 2888,
      "aspects": 2889,
      "agreement": 2890,
      "''": 2891,
      "astive": 2892,
      "second": 2893,
      "reliably": 2894,
      "mini": 2895,
      "learned": 2896,
      "SD": 2897,
      "dic": 2898,
      "investigates": 2899,
      "observed": 2900,
      "report": 2901,
      "Mem": 2902,
      "Tra": 2903,
      "quantitative": 2904,
      "summaries": 2905,
      "candidate": 2906,
      "phenomenon": 2907,
      "written": 2908,
      "ue": 2909,
      "wered": 2910,
      "supports": 2911,
      "probability": 2912,
      "toxic": 2913,
      "90": 2914,
      "fal": 2915,
      "aces": 2916,
      "dow": 2917,
      "close": 2918,
      "lexical": 2919,
      "Par": 2920,
      "irically": 2921,
      "objectives": 2922,
      "broader": 2923,
      "eper": 2924,
      "compress": 2925,
      "noise": 2926,
      "solve": 2927,
      "mitigation": 2928,
      "observ": 2929,
      "vector": 2930,
      "discovery": 2931,
      "appropriate": 2932,
      "perturb": 2933,
      "cas": 2934,
      "condition": 2935,
      "VLMs": 2936,
      "treat": 2937,
      "overcome": 2938,
      "made": 2939,
      "avoid": 2940,
      "Align": 2941,
      "repe": 2942,
      "towards": 2943,
      "track": 2944,
      "formul": 2945,
      "who": 2946,
      "handling": 2947,
      "map": 2948,
      "sense": 2949,
      "forget": 2950,
      "qual": 2951,
      "heads": 2952,
      "positive": 2953,
      "expand": 2954,
      "22": 2955,
      "dig": 2956,
      "ping": 2957,
      "seg": 2958,
      "comprehension": 2959,
      "allowing": 2960,
      "greater": 2961,
      "turing": 2962,
      "vs": 2963,
      "theory": 2964,
      "acqu": 2965,
      "itu": 2966,
      "serve": 2967,
      "network": 2968,
      "principled": 2969,
      "standardi": 2970,
      "maxim": 2971,
      "count": 2972,
      "iteratively": 2973,
      "adoption": 2974,
      "validated": 2975,
      "respectively": 2976,
      "descriptions": 2977,
      "DA": 2978,
      "Over": 2979,
      "deeper": 2980,
      "discourse": 2981,
      "measures": 2982,
      "academic": 2983,
      "ending": 2984,
      "chec": 2985,
      "sian": 2986,
      "encour": 2987,
      "culturally": 2988,
      "emerging": 2989,
      "80": 2990,
      "hin": 2991,
      "lea": 2992,
      "met": 2993,
      "autoregressive": 2994,
      "intrinsic": 2995,
      "PA": 2996,
      "atory": 2997,
      "antly": 2998,
      "behavioral": 2999,
      "memorization": 3000,
      "istral": 3001,
      "Judge": 3002,
      "elim": 3003,
      "attribution": 3004,
      "check": 3005,
      "correlation": 3006,
      "estimation": 3007,
      "vocab": 3008,
      "Gro": 3009,
      "black": 3010,
      "ank": 3011,
      "images": 3012,
      "tributions": 3013,
      "characteristics": 3014,
      "frequently": 3015,
      "properties": 3016,
      "makes": 3017,
      "factu": 3018,
      "logic": 3019,
      "experiment": 3020,
      "goal": 3021,
      "necessary": 3022,
      "jointly": 3023,
      "phase": 3024,
      "corresponding": 3025,
      "CR": 3026,
      "lit": 3027,
      "tack": 3028,
      "verse": 3029,
      "GPU": 3030,
      "creating": 3031,
      "ears": 3032,
      "implementation": 3033,
      "principles": 3034,
      "comprising": 3035,
      "load": 3036,
      "nois": 3037,
      "experience": 3038,
      "detecting": 3039,
      "criter": 3040,
      "So": 3041,
      "backb": 3042,
      "routing": 3043,
      "confirm": 3044,
      "Mistral": 3045,
      "ition": 3046,
      "comprom": 3047,
      "however": 3048,
      "Web": 3049,
      "strengths": 3050,
      "elimin": 3051,
      "Net": 3052,
      "sto": 3053,
      "faces": 3054,
      "heur": 3055,
      "modalities": 3056,
      "underscore": 3057,
      "CP": 3058,
      "ession": 3059,
      "team": 3060,
      "producing": 3061,
      "shift": 3062,
      "statistical": 3063,
      "resi": 3064,
      "conclu": 3065,
      "tune": 3066,
      "tware": 3067,
      "noisy": 3068,
      "Pri": 3069,
      "much": 3070,
      "infer": 3071,
      "stages": 3072,
      "tics": 3073,
      "Process": 3074,
      "syntactic": 3075,
      "TE": 3076,
      "hind": 3077,
      "ym": 3078,
      "focuses": 3079,
      "indicating": 3080,
      "Second": 3081,
      "heterogeneous": 3082,
      "upl": 3083,
      "ention": 3084,
      "unseen": 3085,
      "old": 3086,
      "representative": 3087,
      "expensive": 3088,
      "Self": 3089,
      "cle": 3090,
      "prop": 3091,
      "diagnos": 3092,
      "Ques": 3093,
      "trustworthy": 3094,
      "60": 3095,
      "NN": 3096,
      "Yet": 3097,
      "adjust": 3098,
      "paradigms": 3099,
      "olicy": 3100,
      "narrative": 3101,
      "TTS": 3102,
      "motiv": 3103,
      "ulary": 3104,
      "gues": 3105,
      "comparing": 3106,
      "execut": 3107,
      "API": 3108,
      "Ref": 3109,
      "aud": 3110,
      "city": 3111,
      "arding": 3112,
      "proced": 3113,
      "seven": 3114,
      "domin": 3115,
      "focusing": 3116,
      ")-": 3117,
      "alone": 3118,
      "simultaneous": 3119,
      "sumption": 3120,
      "Policy": 3121,
      "Su": 3122,
      "mble": 3123,
      "ring": 3124,
      "acts": 3125,
      "trig": 3126,
      "Int": 3127,
      "vectors": 3128,
      "ories": 3129,
      "claims": 3130,
      "highest": 3131,
      "plex": 3132,
      "combined": 3133,
      "surpasses": 3134,
      "education": 3135,
      "educational": 3136,
      "bottleneck": 3137,
      "Math": 3138,
      "TC": 3139,
      "dense": 3140,
      "atural": 3141,
      "attemp": 3142,
      "icious": 3143,
      "tral": 3144,
      "modules": 3145,
      "identification": 3146,
      "vulnerabilities": 3147,
      "skills": 3148,
      "false": 3149,
      "Do": 3150,
      "Natural": 3151,
      "water": 3152,
      "alloc": 3153,
      "ourced": 3154,
      "crimin": 3155,
      "constructed": 3156,
      "software": 3157,
      "vocabulary": 3158,
      "He": 3159,
      "ele": 3160,
      "dered": 3161,
      "feas": 3162,
      "involving": 3163,
      "practice": 3164,
      "determin": 3165,
      "para": 3166,
      "benchmarking": 3167,
      "stronger": 3168,
      "apping": 3169,
      "offs": 3170,
      "establishes": 3171,
      "yield": 3172,
      "activations": 3173,
      "Mix": 3174,
      "SL": 3175,
      "released": 3176,
      "unclear": 3177,
      "interpretation": 3178,
      "simulation": 3179,
      "judgment": 3180,
      "teacher": 3181,
      "Sh": 3182,
      "TH": 3183,
      "ches": 3184,
      "variations": 3185,
      "When": 3186,
      "examin": 3187,
      "Evaluation": 3188,
      "profession": 3189,
      "Sc": 3190,
      "exist": 3191,
      "contributions": 3192,
      "misinformation": 3193,
      "encoding": 3194,
      "previously": 3195,
      "groups": 3196,
      "17": 3197,
      "Vis": 3198,
      "binary": 3199,
      "moun": 3200,
      "upon": 3201,
      "identified": 3202,
      "transformers": 3203,
      "encoders": 3204,
      "established": 3205,
      "associated": 3206,
      "efforts": 3207,
      "modi": 3208,
      "event": 3209,
      "optimizing": 3210,
      "jectory": 3211,
      "numerical": 3212,
      "sibility": 3213,
      "unstructured": 3214,
      "modality": 3215,
      "mitigating": 3216,
      "ugging": 3217,
      "ricul": 3218,
      "flexible": 3219,
      "contrastive": 3220,
      "AL": 3221,
      "ax": 3222,
      "argue": 3223,
      "exceed": 3224,
      "compet": 3225,
      "should": 3226,
      "Context": 3227,
      "judges": 3228,
      "KGs": 3229,
      "ited": 3230,
      "subset": 3231,
      "omed": 3232,
      "change": 3233,
      "produces": 3234,
      "tests": 3235,
      "promo": 3236,
      "include": 3237,
      "dependencies": 3238,
      "instance": 3239,
      "Rel": 3240,
      "compact": 3241,
      "constructs": 3242,
      "dialogues": 3243,
      "handle": 3244,
      "speak": 3245,
      "faithfulness": 3246,
      "deliver": 3247,
      "gain": 3248,
      "chun": 3249,
      "hold": 3250,
      "manually": 3251,
      "represented": 3252,
      "omic": 3253,
      "sequently": 3254,
      "progressive": 3255,
      "Gemma": 3256,
      "normal": 3257,
      "demands": 3258,
      "window": 3259,
      "historical": 3260,
      "Task": 3261,
      "mentally": 3262,
      "suite": 3263,
      "bot": 3264,
      "techn": 3265,
      "templ": 3266,
      "exhibits": 3267,
      "prioriti": 3268,
      "SAE": 3269,
      "iii": 3270,
      "true": 3271,
      "implications": 3272,
      "frag": 3273,
      "scripts": 3274,
      "Ef": 3275,
      "threat": 3276,
      "list": 3277,
      "reduced": 3278,
      "personality": 3279,
      "controll": 3280,
      "conversation": 3281,
      "classifier": 3282,
      "AD": 3283,
      "tation": 3284,
      "tren": 3285,
      "vity": 3286,
      "chains": 3287,
      "elic": 3288,
      "ficiency": 3289,
      "valent": 3290,
      "MAS": 3291,
      "build": 3292,
      "instances": 3293,
      "programming": 3294,
      "Bo": 3295,
      "Tuning": 3296,
      "enrich": 3297,
      "extend": 3298,
      "oph": 3299,
      "claim": 3300,
      "trajectory": 3301,
      "Empirical": 3302,
      "idel": 3303,
      "rare": 3304,
      "ters": 3305,
      "grade": 3306,
      "quantify": 3307,
      "occur": 3308,
      "reviews": 3309,
      "demographic": 3310,
      "moral": 3311,
      "spo": 3312,
      "discrimin": 3313,
      "refusal": 3314,
      "vulnerability": 3315,
      "System": 3316,
      "sole": 3317,
      "assessments": 3318,
      "Qwen3": 3319,
      "called": 3320,
      "soft": 3321,
      "platforms": 3322,
      "scarcity": 3323,
      "ES": 3324,
      "Sem": 3325,
      "Wik": 3326,
      "fers": 3327,
      "ink": 3328,
      "place": 3329,
      "amless": 3330,
      "capturing": 3331,
      "Transformers": 3332,
      "actionable": 3333,
      "attributes": 3334,
      "artificial": 3335,
      "neurons": 3336,
      "rati": 3337,
      "papers": 3338,
      "architectural": 3339,
      "needs": 3340,
      "adaptability": 3341,
      "foundational": 3342,
      "formats": 3343,
      "comprises": 3344,
      "Attention": 3345,
      "belief": 3346,
      "qualitative": 3347,
      "IN": 3348,
      "merg": 3349,
      "wit": 3350,
      "guidel": 3351,
      "ficacy": 3352,
      "fect": 3353,
      "increased": 3354,
      "whereas": 3355,
      "collap": 3356,
      "aking": 3357,
      "mer": 3358,
      "posit": 3359,
      "clustering": 3360,
      "standardized": 3361,
      "criteria": 3362,
      "``": 3363,
      "inspired": 3364,
      "antic": 3365,
      "dev": 3366,
      "compli": 3367,
      "There": 3368,
      "efficacy": 3369,
      "captures": 3370,
      "notable": 3371,
      "omin": 3372,
      "explores": 3373,
      "mixed": 3374,
      "OD": 3375,
      "ince": 3376,
      "insufficient": 3377,
      "versal": 3378,
      "awareness": 3379,
      "Ans": 3380,
      "CS": 3381,
      "Det": 3382,
      "ai": 3383,
      "cat": 3384,
      "native": 3385,
      "sity": 3386,
      "stakes": 3387,
      "seamless": 3388,
      "aphr": 3389,
      "relies": 3390,
      "regular": 3391,
      "potentially": 3392,
      "ampli": 3393,
      "rapidly": 3394,
      "budget": 3395,
      "propag": 3396,
      "accep": 3397,
      "ecause": 3398,
      "select": 3399,
      "reflection": 3400,
      "Under": 3401,
      "meaningful": 3402,
      "plexity": 3403,
      "technical": 3404,
      "%)": 3405,
      "All": 3406,
      "Dy": 3407,
      "ron": 3408,
      "powered": 3409,
      "directional": 3410,
      "Prompt": 3411,
      "Overall": 3412,
      "omedical": 3413,
      "solely": 3414,
      "encode": 3415,
      "erial": 3416,
      "ili": 3417,
      "oppor": 3418,
      "parts": 3419,
      "variance": 3420,
      "demonstrations": 3421,
      "functions": 3422,
      "transparent": 3423,
      "95": 3424,
      "Each": 3425,
      "bl": 3426,
      "arri": 3427,
      "meta": 3428,
      "advancement": 3429,
      "networks": 3430,
      "surpassing": 3431,
      "accessible": 3432,
      "Prior": 3433,
      "opportun": 3434,
      "persu": 3435,
      "recently": 3436,
      "cannot": 3437,
      "avig": 3438,
      "tested": 3439,
      "ergy": 3440,
      "transi": 3441,
      "functional": 3442,
      "probing": 3443,
      "narrow": 3444,
      "malicious": 3445,
      "Sci": 3446,
      "3B": 3447,
      "ised": 3448,
      "coord": 3449,
      "events": 3450,
      "contains": 3451,
      "shar": 3452,
      "carefully": 3453,
      "schema": 3454,
      "participants": 3455,
      "mor": 3456,
      "tree": 3457,
      "inconsistent": 3458,
      "onto": 3459,
      "predomin": 3460,
      "primary": 3461,
      "Imp": 3462,
      "PI": 3463,
      "Sub": 3464,
      "amoun": 3465,
      "game": 3466,
      "hor": 3467,
      "decomposition": 3468,
      "dating": 3469,
      "retrieve": 3470,
      "predictive": 3471,
      "uniform": 3472,
      "simpli": 3473,
      "personalization": 3474,
      "Question": 3475,
      "parametric": 3476,
      "ingual": 3477,
      "perception": 3478,
      "paraphr": 3479,
      "created": 3480,
      "computationally": 3481,
      "reproducible": 3482,
      "SOTA": 3483,
      "database": 3484,
      "Af": 3485,
      "Data": 3486,
      "rating": 3487,
      "determ": 3488,
      "fewer": 3489,
      "estimates": 3490,
      "transparency": 3491,
      "poorly": 3492,
      "finetuning": 3493,
      "21": 3494,
      "avi": 3495,
      "cra": 3496,
      "rup": 3497,
      "revis": 3498,
      "setu": 3499,
      "proposes": 3500,
      "underscoring": 3501,
      "material": 3502,
      "simulate": 3503,
      "operations": 3504,
      "every": 3505,
      "simultaneously": 3506,
      "Py": 3507,
      "ade": 3508,
      "gin": 3509,
      "izations": 3510,
      "becomes": 3511,
      "showed": 3512,
      "introduced": 3513,
      "expressions": 3514,
      "explanation": 3515,
      "hypothesis": 3516,
      "prevent": 3517,
      "tre": 3518,
      "rol": 3519,
      "ulative": 3520,
      "fications": 3521,
      "standing": 3522,
      "shap": 3523,
      "balanced": 3524,
      "persistent": 3525,
      "Answer": 3526,
      "CC": 3527,
      "cir": 3528,
      "gover": 3529,
      "portion": 3530,
      "selected": 3531,
      "surface": 3532,
      "conceptual": 3533,
      "discipl": 3534,
      "suitable": 3535,
      "tackle": 3536,
      "NER": 3537,
      "OR": 3538,
      "incur": 3539,
      "recogn": 3540,
      "tise": 3541,
      "edge": 3542,
      "profil": 3543,
      "entire": 3544,
      "diffusion": 3545,
      "selecting": 3546,
      "mitigates": 3547,
      "possible": 3548,
      "ChatGPT": 3549,
      "redundant": 3550,
      "forgetting": 3551,
      "digital": 3552,
      "5B": 3553,
      "HR": 3554,
      "eight": 3555,
      "retraining": 3556,
      "izer": 3557,
      "biased": 3558,
      "ensemble": 3559,
      "interventions": 3560,
      "advantages": 3561,
      "cut": 3562,
      "independent": 3563,
      "erpr": 3564,
      "perplexity": 3565,
      "guard": 3566,
      "aligns": 3567,
      "biomedical": 3568,
      "longer": 3569,
      "practic": 3570,
      "equi": 3571,
      "OpenAI": 3572,
      "others": 3573,
      "land": 3574,
      "BERTa": 3575,
      "followed": 3576,
      "Veri": 3577,
      "cial": 3578,
      "rub": 3579,
      "wo": 3580,
      "compass": 3581,
      "spaces": 3582,
      "paired": 3583,
      "consists": 3584,
      "collection": 3585,
      "SS": 3586,
      "satis": 3587,
      "titu": 3588,
      "arant": 3589,
      "leak": 3590,
      "contam": 3591,
      "logically": 3592,
      "extracted": 3593,
      "measuring": 3594,
      "yielding": 3595,
      "defense": 3596,
      "IT": 3597,
      "Preference": 3598,
      "extended": 3599,
      "pread": 3600,
      "Inter": 3601,
      "prising": 3602,
      "successfully": 3603,
      "author": 3604,
      "Traditional": 3605,
      "Group": 3606,
      "day": 3607,
      "modes": 3608,
      "guarant": 3609,
      "suggests": 3610,
      "psychological": 3611,
      "argument": 3612,
      "diagnosis": 3613,
      "500": 3614,
      "because": 3615,
      "navig": 3616,
      "seve": 3617,
      "intu": 3618,
      "containing": 3619,
      "useful": 3620,
      "dialec": 3621,
      "utilizing": 3622,
      "frequency": 3623,
      "checking": 3624,
      "Fl": 3625,
      "sourced": 3626,
      "encompass": 3627,
      "espread": 3628,
      "extre": 3629,
      "area": 3630,
      "suboptimal": 3631,
      "statements": 3632,
      "comparative": 3633,
      "preserve": 3634,
      "involves": 3635,
      "alongside": 3636,
      "hardware": 3637,
      "tables": 3638,
      "discrete": 3639,
      "riculum": 3640,
      "Pl": 3641,
      "projec": 3642,
      "scenario": 3643,
      "faster": 3644,
      "convergence": 3645,
      "Speech": 3646,
      "commercial": 3647,
      "Ap": 3648,
      "dro": 3649,
      "mid": 3650,
      "ali": 3651,
      "decompos": 3652,
      "posing": 3653,
      "manner": 3654,
      "erson": 3655,
      "applicability": 3656,
      "cepti": 3657,
      "operational": 3658,
      "establishing": 3659,
      "matches": 3660,
      "vulnerable": 3661,
      "inherently": 3662,
      "ambiguous": 3663,
      "strict": 3664,
      "widespread": 3665,
      "Benchmar": 3666,
      "NT": 3667,
      "Str": 3668,
      "ology": 3669,
      "uz": 3670,
      "generally": 3671,
      "finding": 3672,
      "perspectives": 3673,
      "contribute": 3674,
      "collapse": 3675,
      "DP": 3676,
      "instead": 3677,
      "ark": 3678,
      "empirically": 3679,
      "enabled": 3680,
      "named": 3681,
      "maintains": 3682,
      "ambiguity": 3683,
      "predominantly": 3684,
      "practices": 3685,
      "thres": 3686,
      "together": 3687,
      "irrelevant": 3688,
      "adaptively": 3689,
      "phr": 3690,
      "draft": 3691,
      "weakness": 3692,
      "recommendation": 3693,
      "perturbations": 3694,
      "LO": 3695,
      "cing": 3696,
      "aged": 3697,
      "contain": 3698,
      "opin": 3699,
      "gran": 3700,
      "Token": 3701,
      "Exper": 3702,
      "variation": 3703,
      "Reward": 3704,
      "students": 3705,
      "advantage": 3706,
      "horiz": 3707,
      "28": 3708,
      "DE": 3709,
      "MML": 3710,
      "extracting": 3711,
      "policies": 3712,
      "verify": 3713,
      "family": 3714,
      "MCP": 3715,
      "overlooking": 3716,
      "Syn": 3717,
      "discuss": 3718,
      "99": 3719,
      "MM": 3720,
      "listic": 3721,
      "soph": 3722,
      "reposit": 3723,
      "sure": 3724,
      "Then": 3725,
      "monit": 3726,
      "hyper": 3727,
      "commonly": 3728,
      "utilize": 3729,
      "block": 3730,
      "1B": 3731,
      "story": 3732,
      "define": 3733,
      "acro": 3734,
      "Tool": 3735,
      "variant": 3736,
      "variety": 3737,
      "adapting": 3738,
      "articles": 3739,
      "compliance": 3740,
      "govern": 3741,
      "sophistic": 3742,
      "Person": 3743,
      "roles": 3744,
      "asing": 3745,
      "recor": 3746,
      "AIME": 3747,
      "represents": 3748,
      "adapted": 3749,
      "creative": 3750,
      "thentic": 3751,
      "70B": 3752,
      "suscepti": 3753,
      "rationales": 3754,
      "granular": 3755,
      "iness": 3756,
      "exact": 3757,
      "consum": 3758,
      "outcome": 3759,
      "enses": 3760,
      "incorporate": 3761,
      "comparisons": 3762,
      "expected": 3763,
      "circu": 3764,
      "MMLU": 3765,
      "Dif": 3766,
      "IP": 3767,
      "gent": 3768,
      "formation": 3769,
      "factor": 3770,
      "ranging": 3771,
      "expertise": 3772,
      "studied": 3773,
      "turns": 3774,
      "configurations": 3775,
      "27": 3776,
      "fit": 3777,
      "io": 3778,
      "dex": 3779,
      "behind": 3780,
      "overl": 3781,
      "transforms": 3782,
      "fundamentally": 3783,
      "assistants": 3784,
      "abstract": 3785,
      "emergence": 3786,
      "persuas": 3787,
      "craf": 3788,
      "la": 3789,
      "onnet": 3790,
      "total": 3791,
      "covers": 3792,
      "framing": 3793,
      "update": 3794,
      "subtle": 3795,
      "serves": 3796,
      "2024": 3797,
      "illu": 3798,
      "authors": 3799,
      "Super": 3800,
      "Sur": 3801,
      "proof": 3802,
      "hood": 3803,
      "Inspired": 3804,
      "Most": 3805,
      "authentic": 3806,
      "validity": 3807,
      "debate": 3808,
      "unexplored": 3809,
      "ereo": 3810,
      "curriculum": 3811,
      "divergence": 3812,
      "regul": 3813,
      "embedded": 3814,
      "intervention": 3815,
      "classifiers": 3816,
      "platform": 3817,
      "Detec": 3818,
      "contamination": 3819,
      "IC": 3820,
      "Rank": 3821,
      "lies": 3822,
      "management": 3823,
      "metry": 3824,
      "heavi": 3825,
      "trace": 3826,
      "commonsense": 3827,
      "uzz": 3828,
      "26": 3829,
      "AM": 3830,
      "iction": 3831,
      "cumul": 3832,
      "summary": 3833,
      "learns": 3834,
      "ernel": 3835,
      "fields": 3836,
      "speedup": 3837,
      "extreme": 3838,
      "heavily": 3839,
      "75": 3840,
      "Wor": 3841,
      "years": 3842,
      "metic": 3843,
      "uncover": 3844,
      "cording": 3845,
      "informative": 3846,
      "mechanistic": 3847,
      "fails": 3848,
      "choices": 3849,
      "sparsity": 3850,
      "narratives": 3851,
      "spoken": 3852,
      "guidelines": 3853,
      "8K": 3854,
      "Sa": 3855,
      "drop": 3856,
      "fav": 3857,
      "arity": 3858,
      "ild": 3859,
      "adata": 3860,
      "marking": 3861,
      "ssess": 3862,
      "ready": 3863,
      "items": 3864,
      "HF": 3865,
      "Lever": 3866,
      "Test": 3867,
      "uine": 3868,
      "compati": 3869,
      "generator": 3870,
      "raises": 3871,
      "distil": 3872,
      "offline": 3873,
      "preserves": 3874,
      "Beyond": 3875,
      "backbone": 3876,
      "sophisticated": 3877,
      "67": 3878,
      "Ms": 3879,
      "far": 3880,
      "ror": 3881,
      "genuine": 3882,
      "Com": 3883,
      "criti": 3884,
      "plays": 3885,
      "intelligent": 3886,
      "majority": 3887,
      "faithful": 3888,
      "factuality": 3889,
      "Processing": 3890,
      "profiles": 3891,
      "CH": 3892,
      "cli": 3893,
      "ime": 3894,
      "vast": 3895,
      "ablation": 3896,
      "sust": 3897,
      "rix": 3898,
      "informed": 3899,
      "strategic": 3900,
      "phic": 3901,
      "personas": 3902,
      "investigation": 3903,
      "Multimodal": 3904,
      "reading": 3905,
      "benefit": 3906,
      "affect": 3907,
      "approximately": 3908,
      "tabular": 3909,
      "32B": 3910,
      "segment": 3911,
      "opportunities": 3912,
      "Ger": 3913,
      "Ste": 3914,
      "around": 3915,
      "eme": 3916,
      "tec": 3917,
      "xili": 3918,
      "plau": 3919,
      "million": 3920,
      "positional": 3921,
      "classical": 3922,
      "history": 3923,
      "link": 3924,
      "injection": 3925,
      "metadata": 3926,
      "Pyth": 3927,
      "Leveraging": 3928,
      "xiliary": 3929,
      "batch": 3930,
      "ands": 3931,
      "itself": 3932,
      "abs": 3933,
      "missing": 3934,
      "product": 3935,
      "Log": 3936,
      "emergent": 3937,
      "little": 3938,
      "professional": 3939,
      "ians": 3940,
      "ick": 3941,
      "account": 3942,
      "modif": 3943,
      "viol": 3944,
      "auxiliary": 3945,
      "past": 3946,
      "dispar": 3947,
      "ideo": 3948,
      "creation": 3949,
      "failures": 3950,
      "Cont": 3951,
      "Analy": 3952,
      "easily": 3953,
      "generalizability": 3954,
      "closely": 3955,
      "hinder": 3956,
      "AT": 3957,
      "EM": 3958,
      "PT": 3959,
      "Ph": 3960,
      "SR": 3961,
      "dit": 3962,
      "ey": 3963,
      "entang": 3964,
      "recip": 3965,
      "valence": 3966,
      "temper": 3967,
      "applies": 3968,
      "details": 3969,
      "protocols": 3970,
      "EHR": 3971,
      "LRMs": 3972,
      "Tur": 3973,
      "econ": 3974,
      "lines": 3975,
      "anish": 3976,
      "ening": 3977,
      "recast": 3978,
      "misalignment": 3979,
      "balancing": 3980,
      "needed": 3981,
      "goals": 3982,
      "delivers": 3983,
      "adequ": 3984,
      "leakage": 3985,
      "horizon": 3986,
      "85": 3987,
      "WE": 3988,
      "decompo": 3989,
      "very": 3990,
      "formulation": 3991,
      "extent": 3992,
      "scr": 3993,
      "constructing": 3994,
      "labor": 3995,
      "drift": 3996,
      "methodologies": 3997,
      "book": 3998,
      "LEU": 3999,
      "effort": 4000,
      "conflict": 4001,
      "35": 4002,
      "Cor": 4003,
      "DI": 4004,
      "Sonnet": 4005,
      "Vi": 4006,
      "ove": 4007,
      "ying": 4008,
      "restric": 4009,
      "energy": 4010,
      "usti": 4011,
      "prone": 4012,
      "translations": 4013,
      "PEFT": 4014,
      "aggregation": 4015,
      "recommendations": 4016,
      "leaving": 4017,
      "72": 4018,
      "stereo": 4019,
      "isation": 4020,
      "monol": 4021,
      "empath": 4022,
      "region": 4023,
      "astro": 4024,
      "combination": 4025,
      "aspect": 4026,
      "resolution": 4027,
      "BE": 4028,
      "Tree": 4029,
      "her": 4030,
      "idates": 4031,
      "replic": 4032,
      "mode": 4033,
      "probe": 4034,
      "medic": 4035,
      "transformation": 4036,
      "boundaries": 4037,
      "innovations": 4038,
      "subjective": 4039,
      "toxicity": 4040,
      "cause": 4041,
      "fill": 4042,
      "mes": 4043,
      "pho": 4044,
      "elling": 4045,
      "expan": 4046,
      "adopted": 4047,
      "collected": 4048,
      "attribute": 4049,
      "flexibility": 4050,
      "Ab": 4051,
      "Em": 4052,
      "GU": 4053,
      "ire": 4054,
      "ulate": 4055,
      "abilistic": 4056,
      "transforming": 4057,
      "responsible": 4058,
      "universal": 4059,
      "utilization": 4060,
      "numerous": 4061,
      "Rese": 4062,
      "dr": 4063,
      "mic": 4064,
      "arm": 4065,
      "protec": 4066,
      "ople": 4067,
      "throughput": 4068,
      "operate": 4069,
      "utilizes": 4070,
      "RoBERTa": 4071,
      "Direct": 4072,
      "massive": 4073,
      "Therefore": 4074,
      "determine": 4075,
      "weaknesses": 4076,
      "AU": 4077,
      "GSM": 4078,
      "Met": 4079,
      "Val": 4080,
      "ler": 4081,
      "mut": 4082,
      "situ": 4083,
      "rece": 4084,
      "ching": 4085,
      "chem": 4086,
      "performed": 4087,
      "Instead": 4088,
      "correl": 4089,
      "solute": 4090,
      "lacking": 4091,
      "thiness": 4092,
      "scheme": 4093,
      "candidates": 4094,
      "tracking": 4095,
      "merging": 4096,
      "Answering": 4097,
      "mask": 4098,
      "name": 4099,
      "rac": 4100,
      "degrade": 4101,
      "tioners": 4102,
      "ult": 4103,
      "concise": 4104,
      "hope": 4105,
      "rail": 4106,
      "tokenization": 4107,
      "suppres": 4108,
      "selects": 4109,
      "ensity": 4110,
      "positions": 4111,
      "benign": 4112,
      "expression": 4113,
      "German": 4114,
      "Research": 4115,
      "98": 4116,
      "Bang": 4117,
      "Cr": 4118,
      "IM": 4119,
      "barri": 4120,
      "hate": 4121,
      "justi": 4122,
      "macro": 4123,
      "codes": 4124,
      "prox": 4125,
      "interface": 4126,
      "predicting": 4127,
      "appear": 4128,
      "exploit": 4129,
      "fluency": 4130,
      "relatively": 4131,
      "landsc": 4132,
      "kernel": 4133,
      "actual": 4134,
      "urally": 4135,
      "unsupervised": 4136,
      "ident": 4137,
      "agn": 4138,
      "Indi": 4139,
      "standards": 4140,
      "\\%$": 4141,
      "calls": 4142,
      "percentage": 4143,
      "Benchmark": 4144,
      "Aware": 4145,
      "BLEU": 4146,
      "mus": 4147,
      "according": 4148,
      "verbal": 4149,
      "Motiv": 4150,
      "revealed": 4151,
      "mathematics": 4152,
      "stylistic": 4153,
      "seamlessly": 4154,
      "decomposes": 4155,
      "Emo": 4156,
      "Hy": 4157,
      "mapping": 4158,
      "cell": 4159,
      "proportion": 4160,
      "absolute": 4161,
      "versus": 4162,
      "ird": 4163,
      "ToM": 4164,
      "dise": 4165,
      "verified": 4166,
      "adopt": 4167,
      "decreas": 4168,
      "Fra": 4169,
      "Gi": 4170,
      "Uni": 4171,
      "cop": 4172,
      "perfect": 4173,
      "quad": 4174,
      "ided": 4175,
      "generations": 4176,
      "coming": 4177,
      "bio": 4178,
      "serving": 4179,
      "selectively": 4180,
      "deploying": 4181,
      "employing": 4182,
      "generalizable": 4183,
      "Understanding": 4184,
      "Flash": 4185,
      "64": 4186,
      "Att": 4187,
      "Go": 4188,
      "IF": 4189,
      "arse": 4190,
      "mainly": 4191,
      "iber": 4192,
      "consisting": 4193,
      "emph": 4194,
      "produced": 4195,
      "people": 4196,
      "operates": 4197,
      "draw": 4198,
      "counterparts": 4199,
      "trustworthiness": 4200,
      "reproducibility": 4201,
      "technologies": 4202,
      "absence": 4203,
      "Fact": 4204,
      "Lat": 4205,
      "Scal": 4206,
      "etic": 4207,
      "mess": 4208,
      "right": 4209,
      "inv": 4210,
      "icated": 4211,
      "basic": 4212,
      "evaluators": 4213,
      "bots": 4214,
      "engagement": 4215,
      "correlations": 4216,
      "identity": 4217,
      "naturally": 4218,
      "annotators": 4219,
      "production": 4220,
      "passages": 4221,
      "employed": 4222,
      "examines": 4223,
      "property": 4224,
      "practitioners": 4225,
      "controllable": 4226,
      "catastro": 4227,
      "gon": 4228,
      "stance": 4229,
      "acri": 4230,
      "deliber": 4231,
      "pool": 4232,
      "spans": 4233,
      "plug": 4234,
      "mainstream": 4235,
      "predefined": 4236,
      "liminary": 4237,
      "likely": 4238,
      "regions": 4239,
      "matrix": 4240,
      "Reason": 4241,
      "contributes": 4242,
      "refined": 4243,
      "Adaptive": 4244,
      "materials": 4245,
      "200": 4246,
      "ery": 4247,
      "icians": 4248,
      "coarse": 4249,
      "contribution": 4250,
      "areas": 4251,
      "raising": 4252,
      "board": 4253,
      "probabilities": 4254,
      "probabilistic": 4255,
      "ensus": 4256,
      "Relative": 4257,
      "33": 4258,
      "nine": 4259,
      "ativity": 4260,
      "itable": 4261,
      "hoc": 4262,
      "parse": 4263,
      "finance": 4264,
      "speci": 4265,
      "timately": 4266,
      "share": 4267,
      "distribut": 4268,
      "pairwise": 4269,
      "peer": 4270,
      "continual": 4271,
      "playing": 4272,
      "neglec": 4273,
      "equip": 4274,
      "heuristic": 4275,
      "Given": 4276,
      "%),": 4277,
      "VA": 4278,
      "gre": 4279,
      "perce": 4280,
      "lihood": 4281,
      "presented": 4282,
      "interact": 4283,
      "Guard": 4284,
      "holds": 4285,
      "ratio": 4286,
      "temperature": 4287,
      "Bay": 4288,
      "Fe": 4289,
      "Ps": 4290,
      "SC": 4291,
      "gory": 4292,
      "gold": 4293,
      "consumption": 4294,
      "intended": 4295,
      "nodes": 4296,
      "soli": 4297,
      "ferred": 4298,
      "rena": 4299,
      "typical": 4300,
      "transformed": 4301,
      "princip": 4302,
      "compositional": 4303,
      "boosts": 4304,
      "templates": 4305,
      "guardrail": 4306,
      "landscape": 4307,
      "Key": 4308,
      "Li": 4309,
      "attain": 4310,
      "tom": 4311,
      "tron": 4312,
      "lout": 4313,
      "completion": 4314,
      "vised": 4315,
      "variability": 4316,
      "remaining": 4317,
      "sively": 4318,
      "detectors": 4319,
      "mining": 4320,
      "strongly": 4321,
      "depends": 4322,
      "grams": 4323,
      "NLI": 4324,
      "hypotheses": 4325,
      "scarce": 4326,
      "manipulation": 4327,
      "industrial": 4328,
      "Alignment": 4329,
      "morpho": 4330,
      "prisingly": 4331,
      "crafted": 4332,
      "expansion": 4333,
      "quadr": 4334,
      "88": 4335,
      "Ma": 4336,
      "Sim": 4337,
      "independ": 4338,
      "version": 4339,
      "usiness": 4340,
      "representational": 4341,
      "countr": 4342,
      "successful": 4343,
      "origin": 4344,
      "dedicated": 4345,
      "service": 4346,
      "elements": 4347,
      "speaker": 4348,
      "34": 4349,
      "97": 4350,
      "Dial": 4351,
      "ED": 4352,
      "VL": 4353,
      "air": 4354,
      "lens": 4355,
      "pt": 4356,
      "tut": 4357,
      "uth": 4358,
      "actively": 4359,
      "extends": 4360,
      "prefix": 4361,
      "RLHF": 4362,
      "Low": 4363,
      "Distill": 4364,
      "holistic": 4365,
      "neuro": 4366,
      "trends": 4367,
      "Motivated": 4368,
      "catastrophic": 4369,
      "PD": 4370,
      "Sum": 4371,
      "eco": 4372,
      "na": 4373,
      "swit": 4374,
      "astic": 4375,
      "unreliable": 4376,
      "posed": 4377,
      "lier": 4378,
      "extensi": 4379,
      "Information": 4380,
      "Together": 4381,
      "fiable": 4382,
      "relational": 4383,
      "idea": 4384,
      "Recently": 4385,
      "simulated": 4386,
      "continue": 4387,
      "weighted": 4388,
      "counterfactual": 4389,
      "refines": 4390,
      "easy": 4391,
      "separate": 4392,
      "Health": 4393,
      "scratch": 4394,
      "36": 4395,
      "CG": 4396,
      "MR": 4397,
      "traits": 4398,
      "differenti": 4399,
      "fast": 4400,
      "MATH": 4401,
      "guiding": 4402,
      "category": 4403,
      "ensures": 4404,
      "explainability": 4405,
      "repeti": 4406,
      "uggingface": 4407,
      "Dynam": 4408,
      "Si": 4409,
      "thro": 4410,
      "sem": 4411,
      "sound": 4412,
      "market": 4413,
      "lengths": 4414,
      "sched": 4415,
      "patients": 4416,
      "defenses": 4417,
      "seeking": 4418,
      "redundancy": 4419,
      "stood": 4420,
      "feasibility": 4421,
      "Semantic": 4422,
      "Er": 4423,
      "Jap": 4424,
      "Kore": 4425,
      "One": 4426,
      "Red": 4427,
      "huggingface": 4428,
      "utional": 4429,
      "anon": 4430,
      "curation": 4431,
      "constraint": 4432,
      "calling": 4433,
      "ivot": 4434,
      "neutral": 4435,
      "dominant": 4436,
      "chestr": 4437,
      "coordin": 4438,
      "rollout": 4439,
      "guarante": 4440,
      "Frame": 4441,
      "Bayes": 4442,
      "Japan": 4443,
      "Table": 4444,
      "sis": 4445,
      "ured": 4446,
      "zen": 4447,
      "eness": 4448,
      "forcing": 4449,
      "coph": 4450,
      "agmatic": 4451,
      "bypass": 4452,
      "forecast": 4453,
      "max": 4454,
      "strongest": 4455,
      "behaviour": 4456,
      "Training": 4457,
      "therefore": 4458,
      "posts": 4459,
      "break": 4460,
      "assisted": 4461,
      "necessit": 4462,
      "Spanish": 4463,
      "explainable": 4464,
      "innovation": 4465,
      "accept": 4466,
      "severe": 4467,
      "Embed": 4468,
      "37": 4469,
      "PR": 4470,
      "pivot": 4471,
      "understood": 4472,
      "notes": 4473,
      "analytical": 4474,
      "derive": 4475,
      "designs": 4476,
      "encoded": 4477,
      "marked": 4478,
      "private": 4479,
      "draf": 4480,
      "Persian": 4481,
      "overlooked": 4482,
      "Intellig": 4483,
      "fragment": 4484,
      "Supervised": 4485,
      "Python": 4486,
      "87": 4487,
      "car": 4488,
      "infra": 4489,
      "edia": 4490,
      "arith": 4491,
      "exclu": 4492,
      "meet": 4493,
      "libr": 4494,
      "presence": 4495,
      "fective": 4496,
      "prompted": 4497,
      "empo": 4498,
      "brain": 4499,
      "publish": 4500,
      "pathway": 4501,
      "socio": 4502,
      "nearly": 4503,
      "emerge": 4504,
      "consensus": 4505,
      "billion": 4506,
      "intuitive": 4507,
      "Bangla": 4508,
      "quadratic": 4509,
      "La": 4510,
      "No": 4511,
      "bers": 4512,
      "business": 4513,
      "here": 4514,
      "pure": 4515,
      "since": 4516,
      "uro": 4517,
      "inconsist": 4518,
      "index": 4519,
      "recur": 4520,
      "coupl": 4521,
      "excep": 4522,
      "plac": 4523,
      "rise": 4524,
      "volution": 4525,
      "synthesize": 4526,
      "Evaluating": 4527,
      "arguments": 4528,
      "Previous": 4529,
      "clean": 4530,
      "records": 4531,
      "inconsistencies": 4532,
      "29": 4533,
      "Arena": 4534,
      "During": 4535,
      "Here": 4536,
      "MO": 4537,
      "Top": 4538,
      "seed": 4539,
      "iden": 4540,
      "preced": 4541,
      "ipedia": 4542,
      "integrity": 4543,
      "likelihood": 4544,
      "labeling": 4545,
      "decoupl": 4546,
      "voting": 4547,
      "Mean": 4548,
      "ROU": 4549,
      "allocation": 4550,
      "Struc": 4551,
      "DB": 4552,
      "SI": 4553,
      "sacri": 4554,
      "already": 4555,
      "proven": 4556,
      "unloc": 4557,
      "why": 4558,
      "scre": 4559,
      "curate": 4560,
      "enced": 4561,
      "automation": 4562,
      "selective": 4563,
      "dependency": 4564,
      "scope": 4565,
      "Generative": 4566,
      "grammatic": 4567,
      "phenomena": 4568,
      "seek": 4569,
      "finetun": 4570,
      "amount": 4571,
      "ratings": 4572,
      "equivalent": 4573,
      "ROUGE": 4574,
      "sacrific": 4575,
      "45": 4576,
      "AG": 4577,
      "Audi": 4578,
      "Br": 4579,
      "DR": 4580,
      "TR": 4581,
      "Time": 4582,
      "VLM": 4583,
      "magn": 4584,
      "pen": 4585,
      "van": 4586,
      "inguistic": 4587,
      "acting": 4588,
      "prohib": 4589,
      "life": 4590,
      "thous": 4591,
      "underm": 4592,
      "differ": 4593,
      "pragmatic": 4594,
      "failing": 4595,
      "illa": 4596,
      "clinically": 4597,
      "styles": 4598,
      "Compreh": 4599,
      "theoretically": 4600,
      "organization": 4601,
      "industry": 4602,
      "whose": 4603,
      "heuristics": 4604,
      "trigg": 4605,
      "Vision": 4606,
      "GSM8K": 4607,
      "ry": 4608,
      "rejec": 4609,
      "reranking": 4610,
      "another": 4611,
      "ortho": 4612,
      "enterpr": 4613,
      "promin": 4614,
      "adding": 4615,
      "Think": 4616,
      "hout": 4617,
      "ughout": 4618,
      "Moder": 4619,
      "optimizes": 4620,
      "newly": 4621,
      "regard": 4622,
      "steer": 4623,
      "individuals": 4624,
      "calibrated": 4625,
      "tendency": 4626,
      "compromising": 4627,
      "watermarking": 4628,
      "propagation": 4629,
      "music": 4630,
      "identical": 4631,
      "PL": 4632,
      "vation": 4633,
      "varies": 4634,
      "}.": 4635,
      "ingly": 4636,
      "orary": 4637,
      "cores": 4638,
      "trial": 4639,
      "speculative": 4640,
      "regression": 4641,
      "transformations": 4642,
      "reflecting": 4643,
      "allevi": 4644,
      "methodological": 4645,
      "autonomously": 4646,
      "budgets": 4647,
      "discrep": 4648,
      "technology": 4649,
      "inefficient": 4650,
      "observation": 4651,
      "conditioned": 4652,
      "encourage": 4653,
      "setup": 4654,
      "rubric": 4655,
      "independently": 4656,
      "OOD": 4657,
      "SLM": 4658,
      "thor": 4659,
      "entions": 4660,
      "theless": 4661,
      "pression": 4662,
      "logits": 4663,
      "generalizes": 4664,
      "regarding": 4665,
      "sequent": 4666,
      "extracts": 4667,
      "combine": 4668,
      "flaw": 4669,
      "calcul": 4670,
      "moderation": 4671,
      "retrieving": 4672,
      "degrades": 4673,
      "verifier": 4674,
      "conflicts": 4675,
      "residual": 4676,
      "Korean": 4677,
      "48": 4678,
      "96": 4679,
      "Cri": 4680,
      "da": 4681,
      "pon": 4682,
      "sal": 4683,
      "{\\": 4684,
      "resist": 4685,
      "assump": 4686,
      "decl": 4687,
      "project": 4688,
      "adherence": 4689,
      "possess": 4690,
      "extending": 4691,
      "representing": 4692,
      "translated": 4693,
      "encoun": 4694,
      "views": 4695,
      "take": 4696,
      "emphasize": 4697,
      "Memory": 4698,
      "observations": 4699,
      "competence": 4700,
      "SAEs": 4701,
      "Wikipedia": 4702,
      "monitoring": 4703,
      "Cruc": 4704,
      "Japanese": 4705,
      "assumptions": 4706,
      "47": 4707,
      "CU": 4708,
      "GT": 4709,
      "itions": 4710,
      "ume": 4711,
      "anch": 4712,
      "orchestr": 4713,
      "expose": 4714,
      "proficiency": 4715,
      "ilot": 4716,
      "sycoph": 4717,
      "acking": 4718,
      "disrup": 4719,
      "critically": 4720,
      "designing": 4721,
      "mismatch": 4722,
      "creates": 4723,
      "featuring": 4724,
      "transcrip": 4725,
      "good": 4726,
      "innovative": 4727,
      "Mixture": 4728,
      "would": 4729,
      "repository": 4730,
      "Dynamic": 4731,
      "Audio": 4732,
      "Crucially": 4733,
      "92": 4734,
      "MP": 4735,
      "bench": 4736,
      "dle": 4737,
      "o3": 4738,
      "units": 4739,
      "agog": 4740,
      "teness": 4741,
      "partial": 4742,
      "Intern": 4743,
      "subject": 4744,
      "subsequent": 4745,
      "rench": 4746,
      "shallow": 4747,
      "demonstration": 4748,
      "supported": 4749,
      "grammar": 4750,
      "norms": 4751,
      "strengthen": 4752,
      "repeated": 4753,
      "devices": 4754,
      "overlap": 4755,
      "critique": 4756,
      "distributed": 4757,
      "Hub": 4758,
      "MLLM": 4759,
      "ake": 4760,
      "hal": 4761,
      "door": 4762,
      "gnitive": 4763,
      "retriever": 4764,
      "outperformed": 4765,
      "assessed": 4766,
      "involve": 4767,
      "accessibility": 4768,
      "avoiding": 4769,
      "progressively": 4770,
      "disparities": 4771,
      "vanilla": 4772,
      "IE": 4773,
      "page": 4774,
      "ues": 4775,
      "references": 4776,
      "devi": 4777,
      "acies": 4778,
      "exemp": 4779,
      "proactive": 4780,
      "programs": 4781,
      "unsafe": 4782,
      "generic": 4783,
      "outline": 4784,
      "tured": 4785,
      "computing": 4786,
      "fake": 4787,
      "enhancement": 4788,
      "measured": 4789,
      "refining": 4790,
      "Guided": 4791,
      "isolated": 4792,
      "conclude": 4793,
      "executable": 4794,
      "TCM": 4795,
      "feasible": 4796,
      "Experts": 4797,
      "MS": 4798,
      "V3": 4799,
      "citation": 4800,
      "slow": 4801,
      "edits": 4802,
      "utter": 4803,
      "note": 4804,
      "span": 4805,
      "underrepresented": 4806,
      "notably": 4807,
      "experiences": 4808,
      "misleading": 4809,
      "predicted": 4810,
      "simulating": 4811,
      "bridging": 4812,
      "truly": 4813,
      "Arti": 4814,
      "helps": 4815,
      "linking": 4816,
      "contrad": 4817,
      "resili": 4818,
      "elicit": 4819,
      "plausible": 4820,
      "Meta": 4821,
      "proxy": 4822,
      "throughout": 4823,
      "Intelligence": 4824,
      "(+": 4825,
      "78": 4826,
      "Col": 4827,
      "FN": 4828,
      "Sparse": 4829,
      "lacks": 4830,
      "rics": 4831,
      "rozen": 4832,
      "topo": 4833,
      "trains": 4834,
      "keep": 4835,
      "contextually": 4836,
      "creativity": 4837,
      "leader": 4838,
      "comprehensively": 4839,
      "quantifies": 4840,
      "guides": 4841,
      "reflects": 4842,
      "largest": 4843,
      "reported": 4844,
      "continuously": 4845,
      "databases": 4846,
      "itude": 4847,
      "examining": 4848,
      "drops": 4849,
      "Comprehensive": 4850,
      "enterprise": 4851,
      "DS": 4852,
      "Dec": 4853,
      "KE": 4854,
      "SV": 4855,
      "Small": 4856,
      "nel": 4857,
      "atomic": 4858,
      "alter": 4859,
      "alog": 4860,
      "accumul": 4861,
      "urgent": 4862,
      "frames": 4863,
      "exploring": 4864,
      "sight": 4865,
      "preservation": 4866,
      "think": 4867,
      "sometimes": 4868,
      "alternatives": 4869,
      "affects": 4870,
      "geometric": 4871,
      "pedagog": 4872,
      "disciplinary": 4873,
      "Modern": 4874,
      "55": 4875,
      "Fo": 4876,
      "HA": 4877,
      "Om": 4878,
      "ff": 4879,
      "gam": 4880,
      "isition": 4881,
      "exces": 4882,
      "versions": 4883,
      "compan": 4884,
      "etal": 4885,
      "manif": 4886,
      "impacts": 4887,
      "contemp": 4888,
      "plans": 4889,
      "incre": 4890,
      "ists": 4891,
      "prono": 4892,
      "distance": 4893,
      "suffers": 4894,
      "emotions": 4895,
      "Agents": 4896,
      "Clin": 4897,
      "frequent": 4898,
      "cluster": 4899,
      "Bio": 4900,
      "neuron": 4901,
      "Adaptation": 4902,
      "blocks": 4903,
      "sustain": 4904,
      "Bayesian": 4905,
      "43": 4906,
      "65": 4907,
      "68": 4908,
      "CI": 4909,
      "LST": 4910,
      "Soc": 4911,
      "Ta": 4912,
      "ician": 4913,
      "coder": 4914,
      "molec": 4915,
      "extr": 4916,
      "child": 4917,
      "ides": 4918,
      "spur": 4919,
      "marg": 4920,
      "They": 4921,
      "paving": 4922,
      "subtasks": 4923,
      "Recognition": 4924,
      "computer": 4925,
      "translate": 4926,
      "targeting": 4927,
      "rices": 4928,
      "utilized": 4929,
      "assistant": 4930,
      "gradients": 4931,
      "segments": 4932,
      "modifications": 4933,
      "ontology": 4934,
      "specified": 4935,
      "principle": 4936,
      "guarantees": 4937,
      "pivotal": 4938,
      "94": 4939,
      "KL": 4940,
      "Mind": 4941,
      "Nor": 4942,
      "PRM": 4943,
      "Vec": 4944,
      "bur": 4945,
      "ged": 4946,
      "room": 4947,
      "node": 4948,
      "hour": 4949,
      "bodi": 4950,
      "mission": 4951,
      "ideas": 4952,
      "centered": 4953,
      "simulations": 4954,
      "transcripts": 4955,
      "evolve": 4956,
      "synthesized": 4957,
      "Llama3": 4958,
      "broadly": 4959,
      "boundary": 4960,
      "voice": 4961,
      "abstraction": 4962,
      "obtained": 4963,
      "beliefs": 4964,
      "Error": 4965,
      "4B": 4966,
      "Git": 4967,
      "istem": 4968,
      "induce": 4969,
      "inking": 4970,
      "arly": 4971,
      "arises": 4972,
      "assumption": 4973,
      "lions": 4974,
      "bases": 4975,
      "thored": 4976,
      "ficiencies": 4977,
      "bidirectional": 4978,
      "currently": 4979,
      "matrices": 4980,
      "superiority": 4981,
      "Act": 4982,
      "accelerate": 4983,
      "induced": 4984,
      "physics": 4985,
      "reaching": 4986,
      "promote": 4987,
      "economic": 4988,
      "medicine": 4989,
      "arithmetic": 4990,
      "57": 4991,
      "84": 4992,
      "89": 4993,
      "Cross": 4994,
      "II": 4995,
      "bile": 4996,
      "frozen": 4997,
      "mist": 4998,
      "tly": 4999,
      "usu": 5000,
      "insp": 5001,
      "parsing": 5002,
      "Inte": 5003,
      "authored": 5004,
      "synerg": 5005,
      "videos": 5006,
      "causes": 5007,
      "combinations": 5008,
      "environmental": 5009,
      "moderate": 5010,
      "describe": 5011,
      "growth": 5012,
      "affective": 5013,
      "commerce": 5014,
      "services": 5015,
      "acquisition": 5016,
      "rarely": 5017,
      "susceptible": 5018,
      "World": 5019,
      "Analysis": 5020,
      "grammatical": 5021,
      "sacrificing": 5022,
      "penal": 5023,
      "thousands": 5024,
      "contemporary": 5025,
      "Lay": 5026,
      "Pass": 5027,
      "Such": 5028,
      "TF": 5029,
      "vital": 5030,
      "stress": 5031,
      "adver": 5032,
      "preliminary": 5033,
      "entirely": 5034,
      "disentang": 5035,
      "targets": 5036,
      "culture": 5037,
      "societal": 5038,
      "documentation": 5039,
      "classes": 5040,
      "facilitating": 5041,
      "monolingual": 5042,
      "Artificial": 5043,
      "\",": 5044,
      "$^": 5045,
      "($": 5046,
      "Ca": 5047,
      "French": 5048,
      "LI": 5049,
      "PS": 5050,
      "PPO": 5051,
      "US": 5052,
      "aks": 5053,
      "smo": 5054,
      "assu": 5055,
      "means": 5056,
      "former": 5057,
      "homo": 5058,
      "Coder": 5059,
      "interpreting": 5060,
      "respond": 5061,
      "drive": 5062,
      "aiming": 5063,
      "emerges": 5064,
      "Selec": 5065,
      "definitions": 5066,
      "Automatic": 5067,
      "geometry": 5068,
      "underscores": 5069,
      "delivering": 5070,
      "sharp": 5071,
      "consuming": 5072,
      "compatible": 5073,
      "distilled": 5074,
      "magnitude": 5075,
      "istemic": 5076,
      "81": 5077,
      "Mark": 5078,
      "Next": 5079,
      "UQ": 5080,
      "Zero": 5081,
      "bran": 5082,
      "lig": 5083,
      "sl": 5084,
      "v2": 5085,
      "ache": 5086,
      "below": 5087,
      "quests": 5088,
      "minor": 5089,
      "automating": 5090,
      "communities": 5091,
      "considering": 5092,
      "ogle": 5093,
      "infrastructure": 5094,
      "$-": 5095,
      "77": 5096,
      "BM": 5097,
      "Rout": 5098,
      "Sw": 5099,
      "TI": 5100,
      "rewriting": 5101,
      "edit": 5102,
      "start": 5103,
      "seem": 5104,
      "semb": 5105,
      "merely": 5106,
      "ultimately": 5107,
      "utes": 5108,
      "ussian": 5109,
      "extension": 5110,
      "imple": 5111,
      "trainable": 5112,
      "parti": 5113,
      "computations": 5114,
      "crete": 5115,
      "testbed": 5116,
      "phone": 5117,
      "medium": 5118,
      "estimate": 5119,
      "Query": 5120,
      "facilitates": 5121,
      "algorithmic": 5122,
      "implicitly": 5123,
      "mixture": 5124,
      "safegu": 5125,
      "associations": 5126,
      "rigorously": 5127,
      "chatbots": 5128,
      "bitr": 5129,
      "conclusions": 5130,
      "audit": 5131,
      "exceeding": 5132,
      "transition": 5133,
      "App": 5134,
      "fitting": 5135,
      "authorship": 5136,
      "GitHub": 5137,
      "82": 5138,
      "BA": 5139,
      "gree": 5140,
      "tations": 5141,
      "tered": 5142,
      "above": 5143,
      "polar": 5144,
      "izers": 5145,
      "arily": 5146,
      "novelty": 5147,
      "modest": 5148,
      "background": 5149,
      "Adv": 5150,
      "simply": 5151,
      "thoughts": 5152,
      "operation": 5153,
      "filters": 5154,
      "runtime": 5155,
      "Neural": 5156,
      "chatbot": 5157,
      "eliminates": 5158,
      "favor": 5159,
      "copy": 5160,
      "Framework": 5161,
      "triggers": 5162,
      "Omni": 5163,
      "marginal": 5164,
      "Lab": 5165,
      "Pr": 5166,
      "late": 5167,
      "mir": 5168,
      "pping": 5169,
      "requests": 5170,
      "prove": 5171,
      "percep": 5172,
      "interference": 5173,
      "texttt": 5174,
      "port": 5175,
      "adapts": 5176,
      "channel": 5177,
      "availability": 5178,
      "translating": 5179,
      "superficial": 5180,
      "distributional": 5181,
      "harness": 5182,
      "nuances": 5183,
      "clusters": 5184,
      "considerable": 5185,
      "customer": 5186,
      "retaining": 5187,
      "factually": 5188,
      "attempts": 5189,
      "shaping": 5190,
      "Phi": 5191,
      "recipe": 5192,
      "micro": 5193,
      "Latent": 5194,
      "contradic": 5195,
      "usually": 5196,
      "Integr": 5197,
      "44": 5198,
      "CD": 5199,
      "Gra": 5200,
      "Video": 5201,
      "recover": 5202,
      "stories": 5203,
      "degree": 5204,
      "uling": 5205,
      "ulations": 5206,
      "tum": 5207,
      "begin": 5208,
      "epistemic": 5209,
      "subspace": 5210,
      "strategically": 5211,
      "traction": 5212,
      "classify": 5213,
      "brit": 5214,
      "Consequently": 5215,
      "implemented": 5216,
      "weighting": 5217,
      "Evaluations": 5218,
      "intric": 5219,
      "Empirically": 5220,
      "Bias": 5221,
      "width": 5222,
      "removing": 5223,
      "treatment": 5224,
      "maps": 5225,
      "Wiki": 5226,
      "opinion": 5227,
      "granularity": 5228,
      "semi": 5229,
      "31": 5230,
      "66": 5231,
      "Machine": 5232,
      "SWE": 5233,
      "VQA": 5234,
      "aid": 5235,
      "antum": 5236,
      "stering": 5237,
      "acous": 5238,
      "move": 5239,
      "completeness": 5240,
      "varied": 5241,
      "studying": 5242,
      "assesses": 5243,
      "later": 5244,
      "driving": 5245,
      "indicators": 5246,
      "expressive": 5247,
      "statistically": 5248,
      "rationale": 5249,
      "hindered": 5250,
      "auditing": 5251,
      "Afric": 5252,
      "threshold": 5253,
      "orthogon": 5254,
      "LSTM": 5255,
      "38": 5256,
      "Mini": 5257,
      "WER": 5258,
      "might": 5259,
      "o1": 5260,
      "incomplete": 5261,
      "rerank": 5262,
      "sts": 5263,
      "stor": 5264,
      "arise": 5265,
      "arbitr": 5266,
      "accoun": 5267,
      "ites": 5268,
      "forces": 5269,
      "conditional": 5270,
      "intention": 5271,
      "plain": 5272,
      "prevalent": 5273,
      "comments": 5274,
      "having": 5275,
      "foster": 5276,
      "sampled": 5277,
      "Conf": 5278,
      "streaming": 5279,
      "taking": 5280,
      "Alp": 5281,
      "confirming": 5282,
      "backbones": 5283,
      "examined": 5284,
      "normalization": 5285,
      "Efficient": 5286,
      "device": 5287,
      "dialect": 5288,
      "modifying": 5289,
      "(\\": 5290,
      "41": 5291,
      "63": 5292,
      "Can": 5293,
      "Dat": 5294,
      "T5": 5295,
      "pse": 5296,
      "although": 5297,
      "stat": 5298,
      "stems": 5299,
      "triple": 5300,
      "How": 5301,
      "critic": 5302,
      "avy": 5303,
      "adapters": 5304,
      "execute": 5305,
      "validating": 5306,
      "schemas": 5307,
      "attempt": 5308,
      "encompassing": 5309,
      "drug": 5310,
      "namely": 5311,
      "countries": 5312,
      "published": 5313,
      "GA": 5314,
      "ie": 5315,
      "mim": 5316,
      "pages": 5317,
      "puzz": 5318,
      "alian": 5319,
      "asym": 5320,
      "ading": 5321,
      "pois": 5322,
      "Indic": 5323,
      "interfaces": 5324,
      "inclusive": 5325,
      "write": 5326,
      "synthesizes": 5327,
      "implementations": 5328,
      "laws": 5329,
      "procedure": 5330,
      "deterministic": 5331,
      "discriminative": 5332,
      "blind": 5333,
      "sharing": 5334,
      "middle": 5335,
      "extremely": 5336,
      "Attack": 5337,
      "Google": 5338,
      "library": 5339,
      "prominent": 5340,
      "thorough": 5341,
      "Social": 5342,
      "%).": 5343,
      "58": 5344,
      "71": 5345,
      "91": 5346,
      "93": 5347,
      "TT": 5348,
      "Te": 5349,
      "evers": 5350,
      "udo": 5351,
      "revolution": 5352,
      "verb": 5353,
      "radio": 5354,
      "tually": 5355,
      "premis": 5356,
      "caption": 5357,
      "difference": 5358,
      "addressed": 5359,
      "Enti": 5360,
      "Check": 5361,
      "linguistically": 5362,
      "General": 5363,
      "shortcut": 5364,
      "textsc": 5365,
      "Compared": 5366,
      "dramatic": 5367,
      "amba": 5368,
      "necessity": 5369,
      "cyber": 5370,
      "norm": 5371,
      "respect": 5372,
      "approximate": 5373,
      "psychology": 5374,
      "configuration": 5375,
      "checkpoints": 5376,
      "chunks": 5377,
      "trend": 5378,
      "persuasion": 5379,
      "regulatory": 5380,
      "ractical": 5381,
      "exceptional": 5382,
      "$,": 5383,
      "IA": 5384,
      "Or": 5385,
      "Pred": 5386,
      "Rate": 5387,
      "Since": 5388,
      "tro": 5389,
      "twe": 5390,
      "almost": 5391,
      "abst": 5392,
      "resh": 5393,
      "complic": 5394,
      "Inference": 5395,
      "underline": 5396,
      "retrievers": 5397,
      "balances": 5398,
      "latter": 5399,
      "specialization": 5400,
      "causing": 5401,
      "volume": 5402,
      "extensively": 5403,
      "activity": 5404,
      "definition": 5405,
      "Quanti": 5406,
      "helpfulness": 5407,
      "inductive": 5408,
      "physical": 5409,
      "stoch": 5410,
      "forecasting": 5411,
      "hours": 5412,
      "62": 5413,
      "MU": 5414,
      "RP": 5415,
      "elec": 5416,
      "era": 5417,
      "ale": 5418,
      "always": 5419,
      "stra": 5420,
      "usable": 5421,
      "symp": 5422,
      "ays": 5423,
      "accuracies": 5424,
      "limate": 5425,
      "correctly": 5426,
      "indicates": 5427,
      "synthesizing": 5428,
      "retrieves": 5429,
      "formalize": 5430,
      "rigid": 5431,
      "considered": 5432,
      "statistics": 5433,
      "jailbreaking": 5434,
      "emphasizing": 5435,
      "compressed": 5436,
      "maximize": 5437,
      "eliminating": 5438,
      "recognize": 5439,
      "Value": 5440,
      "guardrails": 5441,
      "acoustic": 5442,
      "DL": 5443,
      "Euro": 5444,
      "FE": 5445,
      "Hi": 5446,
      "Hard": 5447,
      "Man": 5448,
      "Pub": 5449,
      "Sof": 5450,
      "Ur": 5451,
      "ied": 5452,
      "mit": 5453,
      "star": 5454,
      "intern": 5455,
      "overview": 5456,
      "imbalance": 5457,
      "print": 5458,
      "updated": 5459,
      "subs": 5460,
      "trait": 5461,
      "automate": 5462,
      "credi": 5463,
      "selves": 5464,
      "deployments": 5465,
      "\\%,": 5466,
      "richer": 5467,
      "ARC": 5468,
      "Evaluated": 5469,
      "Autom": 5470,
      "terminology": 5471,
      "trigger": 5472,
      "scheduling": 5473,
      "bodied": 5474,
      "300": 5475,
      "AC": 5476,
      "Amon": 5477,
      "NE": 5478,
      "ior": 5479,
      "instanti": 5480,
      "inadequ": 5481,
      "let": 5482,
      "least": 5483,
      "ision": 5484,
      "cove": 5485,
      "trum": 5486,
      "dimin": 5487,
      "vie": 5488,
      "preferred": 5489,
      "entially": 5490,
      "atest": 5491,
      "ficiently": 5492,
      "desired": 5493,
      "updating": 5494,
      "shor": 5495,
      "heavy": 5496,
      "developers": 5497,
      "obsc": 5498,
      "themselves": 5499,
      "hallucinated": 5500,
      "earlier": 5501,
      "pathways": 5502,
      "neglig": 5503,
      "degrading": 5504,
      "surveys": 5505,
      "14B": 5506,
      "resolve": 5507,
      "article": 5508,
      "distinguishing": 5509,
      "chunk": 5510,
      "opinions": 5511,
      "Safety": 5512,
      "empathy": 5513,
      "disease": 5514,
      "games": 5515,
      "storage": 5516,
      "Among": 5517,
      "diminish": 5518,
      "IS": 5519,
      "LU": 5520,
      "Rev": 5521,
      "adi": 5522,
      "slight": 5523,
      "inconsistency": 5524,
      "reconstruction": 5525,
      "asy": 5526,
      "ented": 5527,
      "clarity": 5528,
      "ongo": 5529,
      "prun": 5530,
      "foot": 5531,
      "shape": 5532,
      "keyword": 5533,
      "quantifying": 5534,
      "aimed": 5535,
      "probes": 5536,
      "equitable": 5537,
      "State": 5538,
      "greatly": 5539,
      "secure": 5540,
      "APIs": 5541,
      "preventing": 5542,
      "stereotypes": 5543,
      "masked": 5544,
      "covered": 5545,
      "negligible": 5546,
      "Dep": 5547,
      "KD": 5548,
      "PRMs": 5549,
      "Tri": 5550,
      "ban": 5551,
      "ffic": 5552,
      "analog": 5553,
      "chron": 5554,
      "ables": 5555,
      "preprocessing": 5556,
      "display": 5557,
      "tokenizer": 5558,
      "predicts": 5559,
      "Enh": 5560,
      "iteration": 5561,
      "quantification": 5562,
      "bridges": 5563,
      "collective": 5564,
      "instability": 5565,
      "contributing": 5566,
      "Metho": 5567,
      "suited": 5568,
      "formulate": 5569,
      "speakers": 5570,
      "prioritize": 5571,
      "setups": 5572,
      "restricted": 5573,
      "regional": 5574,
      "Meanwhile": 5575,
      "Layer": 5576,
      "pseudo": 5577,
      "Entity": 5578,
      "ongoing": 5579,
      "Beng": 5580,
      "Cul": 5581,
      "Mu": 5582,
      "Mamba": 5583,
      "aven": 5584,
      "orders": 5585,
      "stack": 5586,
      "depression": 5587,
      "Thinking": 5588,
      "margin": 5589,
      "structurally": 5590,
      "Real": 5591,
      "encodes": 5592,
      "object": 5593,
      "localization": 5594,
      "literary": 5595,
      "population": 5596,
      "skip": 5597,
      "accelerating": 5598,
      "ratios": 5599,
      "transitions": 5600,
      "amounts": 5601,
      "perceived": 5602,
      "fragmented": 5603,
      "sycophancy": 5604,
      "excessive": 5605,
      "\".": 5606,
      "53": 5607,
      "69": 5608,
      "83": 5609,
      "86": 5610,
      "High": 5611,
      "LVLMs": 5612,
      "Pa": 5613,
      "RT": 5614,
      "hund": 5615,
      "pin": 5616,
      "proving": 5617,
      "finite": 5618,
      "fostering": 5619,
      "Cognitive": 5620,
      "biasing": 5621,
      "unced": 5622,
      "Italian": 5623,
      "involved": 5624,
      "description": 5625,
      "}$,": 5626,
      "debates": 5627,
      "diction": 5628,
      "perturbation": 5629,
      "encourages": 5630,
      "threats": 5631,
      "enriched": 5632,
      "illustr": 5633,
      "barrier": 5634,
      "400": 5635,
      "Car": 5636,
      "Id": 5637,
      "Qs": 5638,
      "bor": 5639,
      "fing": 5640,
      "rest": 5641,
      "retention": 5642,
      "itud": 5643,
      "ull": 5644,
      "consoli": 5645,
      "impractical": 5646,
      "engines": 5647,
      "request": 5648,
      "Represent": 5649,
      "syntax": 5650,
      "ideal": 5651,
      "Translation": 5652,
      "expon": 5653,
      "Multilingual": 5654,
      "expressed": 5655,
      "RoPE": 5656,
      "truthfulness": 5657,
      "connections": 5658,
      "phases": 5659,
      "conflicting": 5660,
      "bilingual": 5661,
      "Feed": 5662,
      "regardless": 5663,
      "Clinical": 5664,
      "59": 5665,
      "73": 5666,
      "74": 5667,
      "79": 5668,
      "Both": 5669,
      "Hindi": 5670,
      "Min": 5671,
      "RS": 5672,
      "rein": 5673,
      "too": 5674,
      "extra": 5675,
      "posure": 5676,
      "irable": 5677,
      "basis": 5678,
      "working": 5679,
      "workload": 5680,
      "termed": 5681,
      "oversight": 5682,
      "spectrum": 5683,
      "incenti": 5684,
      "underperform": 5685,
      "ailing": 5686,
      "disproportion": 5687,
      "plication": 5688,
      "specifications": 5689,
      "Reg": 5690,
      "adapter": 5691,
      "leveraged": 5692,
      "Consist": 5693,
      "exhibiting": 5694,
      "caus": 5695,
      "caused": 5696,
      "fluent": 5697,
      "characterize": 5698,
      "agging": 5699,
      "aggregate": 5700,
      "bottlenec": 5701,
      "section": 5702,
      "conditioning": 5703,
      "checks": 5704,
      "windows": 5705,
      "template": 5706,
      "regularization": 5707,
      "coordination": 5708,
      "Common": 5709,
      "pronounced": 5710,
      "synergistic": 5711,
      "intricate": 5712,
      "orthogonal": 5713,
      "straight": 5714,
      "Bengali": 5715,
      "hundred": 5716,
      "61": 5717,
      "AB": 5718,
      "Flow": 5719,
      "FFN": 5720,
      "Ga": 5721,
      "Live": 5722,
      "Many": 5723,
      "New": 5724,
      "Temp": 5725,
      "band": 5726,
      "iar": 5727,
      "last": 5728,
      "sn": 5729,
      "third": 5730,
      "acer": 5731,
      "apol": 5732,
      "usals": 5733,
      "generators": 5734,
      "beg": 5735,
      "facet": 5736,
      "versati": 5737,
      "Rewards": 5738,
      "applicable": 5739,
      "annotator": 5740,
      "exploitation": 5741,
      "patent": 5742,
      "difficulties": 5743,
      "operating": 5744,
      "exams": 5745,
      "deduc": 5746,
      "Roman": 5747,
      "Distil": 5748,
      "ROC": 5749,
      "Import": 5750,
      "treating": 5751,
      "decompose": 5752,
      "stochastic": 5753,
      "bottlenecks": 5754,
      "2B": 5755,
      "EC": 5756,
      "Edit": 5757,
      "Out": 5758,
      "OCR": 5759,
      "Ul": 5760,
      "mapp": 5761,
      "mention": 5762,
      "inser": 5763,
      "revision": 5764,
      "replace": 5765,
      "stabil": 5766,
      "stop": 5767,
      "urable": 5768,
      "igno": 5769,
      "intents": 5770,
      "imper": 5771,
      "opa": 5772,
      "partially": 5773,
      "overfitting": 5774,
      "therap": 5775,
      "Theory": 5776,
      "faction": 5777,
      "imag": 5778,
      "providers": 5779,
      "ceptive": 5780,
      "transformative": 5781,
      "instruct": 5782,
      "confident": 5783,
      "refusals": 5784,
      "reflective": 5785,
      "expressi": 5786,
      "helpful": 5787,
      "centralized": 5788,
      "acquire": 5789,
      "procedural": 5790,
      "Verifiable": 5791,
      "governance": 5792,
      "Indian": 5793,
      "Scaling": 5794,
      "tronic": 5795,
      "extensible": 5796,
      "spurious": 5797,
      "Datas": 5798,
      "2S": 5799,
      "Draw": 5800,
      "Even": 5801,
      "FL": 5802,
      "FP": 5803,
      "SH": 5804,
      "Samp": 5805,
      "lem": 5806,
      "che": 5807,
      "unit": 5808,
      "quantum": 5809,
      "ples": 5810,
      "tens": 5811,
      "outdated": 5812,
      "priors": 5813,
      "shelf": 5814,
      "detector": 5815,
      "umor": 5816,
      "interpretations": 5817,
      "simpler": 5818,
      "adaptable": 5819,
      "follows": 5820,
      "careful": 5821,
      "bene": 5822,
      "minimizing": 5823,
      "MLP": 5824,
      "Medical": 5825,
      "initialization": 5826,
      "istry": 5827,
      "subjects": 5828,
      "compromise": 5829,
      "hinders": 5830,
      "Visual": 5831,
      "promoting": 5832,
      "segmentation": 5833,
      "leaderboard": 5834,
      "pedagogical": 5835,
      "opaque": 5836,
      "++": 5837,
      "42": 5838,
      "46": 5839,
      "76": 5840,
      "Cache": 5841,
      "Doc": 5842,
      "FLO": 5843,
      "OS": 5844,
      "Qual": 5845,
      "ave": 5846,
      "gained": 5847,
      "once": 5848,
      "aling": 5849,
      "assive": 5850,
      "pot": 5851,
      "areto": 5852,
      "ags": 5853,
      "embodied": 5854,
      "ancies": 5855,
      "showcas": 5856,
      "logs": 5857,
      "processed": 5858,
      "variable": 5859,
      "timely": 5860,
      "supple": 5861,
      "backdoor": 5862,
      "struggles": 5863,
      "schol": 5864,
      "readability": 5865,
      "competition": 5866,
      "Stand": 5867,
      "necessarily": 5868,
      "confirms": 5869,
      "Instruction": 5870,
      "script": 5871,
      "precisely": 5872,
      "evolutionary": 5873,
      "isolation": 5874,
      "teams": 5875,
      "Detection": 5876,
      "extrapol": 5877,
      "showcasing": 5878,
      "56": 5879,
      "CF": 5880,
      "LF": 5881,
      "Never": 5882,
      "RC": 5883,
      "Vo": 5884,
      "climate": 5885,
      "eity": 5886,
      "sat": 5887,
      "sine": 5888,
      "orical": 5889,
      "ley": 5890,
      "mobile": 5891,
      "sized": 5892,
      "Thus": 5893,
      "presenting": 5894,
      "complexities": 5895,
      "Convers": 5896,
      "sufficiently": 5897,
      "cloud": 5898,
      "collect": 5899,
      "influences": 5900,
      "MedQA": 5901,
      "webs": 5902,
      "ranked": 5903,
      "MCQA": 5904,
      "connected": 5905,
      "approximation": 5906,
      "artifacts": 5907,
      "decay": 5908,
      "believe": 5909,
      "expanding": 5910,
      "Refine": 5911,
      "procedures": 5912,
      "simplification": 5913,
      "rubrics": 5914,
      "Plan": 5915,
      "thresholds": 5916,
      "susceptibility": 5917,
      "Logic": 5918,
      "hindering": 5919,
      "decomposing": 5920,
      "protection": 5921,
      "equipped": 5922,
      "switching": 5923,
      "rollouts": 5924,
      "daily": 5925,
      "Soft": 5926,
      "Urdu": 5927,
      "Drawing": 5928,
      "EN": 5929,
      "Es": 5930,
      "MB": 5931,
      "PP": 5932,
      "Psy": 5933,
      "Pareto": 5934,
      "gal": 5935,
      "gate": 5936,
      "yp": 5937,
      "ymous": 5938,
      "iny": 5939,
      "attrac": 5940,
      "edy": 5941,
      "theories": 5942,
      "restim": 5943,
      "verbo": 5944,
      "usability": 5945,
      "gency": 5946,
      "spread": 5947,
      "engage": 5948,
      "ously": 5949,
      "safer": 5950,
      "significance": 5951,
      "serious": 5952,
      "mostly": 5953,
      "Truth": 5954,
      "filling": 5955,
      "KGQA": 5956,
      "books": 5957,
      "measurement": 5958,
      "attributed": 5959,
      "memorized": 5960,
      "Level": 5961,
      "teaming": 5962,
      "Science": 5963,
      "Surprisingly": 5964,
      "GUI": 5965,
      "acceptance": 5966,
      "purely": 5967,
      "finetuned": 5968,
      "mimic": 5969,
      "straightforward": 5970,
      "Nevertheless": 5971,
      "39": 5972,
      "Face": 5973,
      "TO": 5974,
      "cit": 5975,
      "ose": 5976,
      "vent": 5977,
      "reuse": 5978,
      "replac": 5979,
      "enforce": 5980,
      "arcas": 5981,
      "exposing": 5982,
      "unstable": 5983,
      "diagno": 5984,
      "eviction": 5985,
      "etc": 5986,
      "viable": 5987,
      "clari": 5988,
      "specificity": 5989,
      "misaligned": 5990,
      "computed": 5991,
      "names": 5992,
      "confusion": 5993,
      "fault": 5994,
      "measurable": 5995,
      "conducting": 5996,
      "BERTScore": 5997,
      "matched": 5998,
      "continued": 5999,
      "hypothesize": 6000,
      "Perform": 6001,
      "satisfaction": 6002,
      "illustrate": 6003,
      "attains": 6004,
      "Simul": 6005,
      "prohibitive": 6006,
      "alleviate": 6007,
      "resilience": 6008,
      "smooth": 6009,
      "arbitrary": 6010,
      "satur": 6011,
      "**": 6012,
      "3D": 6013,
      "49": 6014,
      "Ob": 6015,
      "T2": 6016,
      "Word": 6017,
      "cred": 6018,
      "ration": 6019,
      "tone": 6020,
      "reverse": 6021,
      "try": 6022,
      "concent": 6023,
      "convey": 6024,
      "suic": 6025,
      "marks": 6026,
      "doub": 6027,
      "facing": 6028,
      "trivi": 6029,
      "disclo": 6030,
      "predictable": 6031,
      "products": 6032,
      "Decoding": 6033,
      "learnable": 6034,
      "directed": 6035,
      "compound": 6036,
      "reporting": 6037,
      "assistance": 6038,
      "converting": 6039,
      "SON": 6040,
      "runs": 6041,
      "assigned": 6042,
      "falls": 6043,
      "incurs": 6044,
      "navigate": 6045,
      "replicate": 6046,
      "Embedding": 6047,
      "assume": 6048,
      "safeguards": 6049,
      "Identi": 6050,
      "faceted": 6051,
      "Dataset": 6052,
      "beneficial": 6053,
      "52": 6054,
      "54": 6055,
      "Agentic": 6056,
      "Base": 6057,
      "Cap": 6058,
      "FO": 6059,
      "IG": 6060,
      "ON": 6061,
      "hu": 6062,
      "kit": 6063,
      "inspec": 6064,
      "acle": 6065,
      "actually": 6066,
      "exacer": 6067,
      "worse": 6068,
      "places": 6069,
      "prevalence": 6070,
      "proposing": 6071,
      "misuse": 6072,
      "detected": 6073,
      "Deb": 6074,
      "peak": 6075,
      "lengthy": 6076,
      "CLIP": 6077,
      "characterized": 6078,
      "institu": 6079,
      "router": 6080,
      "induces": 6081,
      "emphasizes": 6082,
      "LALMs": 6083,
      "physicians": 6084,
      "Domain": 6085,
      "Diffusion": 6086,
      "Corpus": 6087,
      "naive": 6088,
      "Reddit": 6089,
      "molecular": 6090,
      "burden": 6091,
      "adily": 6092,
      "fingerpr": 6093,
      "exacerb": 6094,
      "BB": 6095,
      "HT": 6096,
      "Mon": 6097,
      "Sign": 6098,
      "itively": 6099,
      "job": 6100,
      "sens": 6101,
      "atures": 6102,
      "refer": 6103,
      "ender": 6104,
      "tigh": 6105,
      "inear": 6106,
      "locally": 6107,
      "investigated": 6108,
      "problematic": 6109,
      "dependence": 6110,
      "exhibited": 6111,
      "verifying": 6112,
      "aster": 6113,
      "attacker": 6114,
      "drawn": 6115,
      "mixing": 6116,
      "GraphRAG": 6117,
      "acceleration": 6118,
      "Legal": 6119,
      "navigation": 6120,
      "circuits": 6121,
      "persuasive": 6122,
      "herit": 6123,
      "drafting": 6124,
      "exclusively": 6125,
      "screening": 6126,
      "half": 6127,
      "trivial": 6128,
      ");": 6129,
      "AN": 6130,
      "Cent": 6131,
      "EL": 6132,
      "Ge": 6133,
      "Im": 6134,
      "Its": 6135,
      "LT": 6136,
      "Ra": 6137,
      "bon": 6138,
      "rated": 6139,
      "vable": 6140,
      "infl": 6141,
      "inaccurate": 6142,
      "proli": 6143,
      "uncovering": 6144,
      "reasons": 6145,
      "body": 6146,
      "overly": 6147,
      "ancer": 6148,
      "audi": 6149,
      "triples": 6150,
      "disambigu": 6151,
      "informal": 6152,
      "interacting": 6153,
      "depending": 6154,
      "scene": 6155,
      "Contr": 6156,
      "counse": 6157,
      "builds": 6158,
      "odic": 6159,
      "shifting": 6160,
      "influenced": 6161,
      "ordering": 6162,
      "accelerates": 6163,
      "expectations": 6164,
      "paraphrasing": 6165,
      "cutting": 6166,
      "Expert": 6167,
      "correlate": 6168,
      "messages": 6169,
      "invest": 6170,
      "neglecting": 6171,
      "coupled": 6172,
      "Automated": 6173,
      "Feedback": 6174,
      "prolifer": 6175,
      "9B": 6176,
      "Evol": 6177,
      "Glo": 6178,
      "Hierarch": 6179,
      "Pol": 6180,
      "VID": 6181,
      "bes": 6182,
      "bally": 6183,
      "gating": 6184,
      "idi": 6185,
      "sti": 6186,
      "vas": 6187,
      "edges": 6188,
      "aring": 6189,
      "deceptive": 6190,
      "unnecessary": 6191,
      "mentary": 6192,
      "white": 6193,
      "live": 6194,
      "performances": 6195,
      "becoming": 6196,
      "spectral": 6197,
      "correlated": 6198,
      "missions": 6199,
      "Whis": 6200,
      "actor": 6201,
      "hallucinate": 6202,
      "2023": 6203,
      "goti": 6204,
      "severity": 6205,
      "meanings": 6206,
      "democr": 6207,
      "heterogeneity": 6208,
      "experimentation": 6209,
      "exceeds": 6210,
      "normalized": 6211,
      "Boo": 6212,
      "projection": 6213,
      "Persona": 6214,
      "Survey": 6215,
      "Ablation": 6216,
      "tutor": 6217,
      "mistakes": 6218,
      "status": 6219,
      "disproportionately": 6220,
      "Consistency": 6221,
      "Performance": 6222,
      "CB": 6223,
      "Dual": 6224,
      "Iter": 6225,
      "Mar": 6226,
      "SSM": 6227,
      "fri": 6228,
      "ives": 6229,
      "latest": 6230,
      "ners": 6231,
      "ov": 6232,
      "invo": 6233,
      "reusable": 6234,
      "road": 6235,
      "exposure": 6236,
      "abl": 6237,
      "quick": 6238,
      "liers": 6239,
      "split": 6240,
      "raise": 6241,
      "tele": 6242,
      "analyzed": 6243,
      "scalar": 6244,
      "RACE": 6245,
      "osen": 6246,
      "explor": 6247,
      "Chall": 6248,
      "ensemb": 6249,
      "controlling": 6250,
      "reviewed": 6251,
      "visualization": 6252,
      "defining": 6253,
      "theoretic": 6254,
      "categorize": 6255,
      "hierarchy": 6256,
      "Built": 6257,
      "completely": 6258,
      "teaching": 6259,
      "certainty": 6260,
      "casc": 6261,
      "treats": 6262,
      "metaph": 6263,
      "revisit": 6264,
      "everyday": 6265,
      "barriers": 6266,
      "Emotion": 6267,
      "Simil": 6268,
      "salient": 6269,
      "brittle": 6270,
      "dramatically": 6271,
      "slightly": 6272,
      "hundreds": 6273,
      ")$": 6274,
      "Cy": 6275,
      "Foc": 6276,
      "GS": 6277,
      "Last": 6278,
      "PRI": 6279,
      "ow": 6280,
      "official": 6281,
      "chart": 6282,
      "chosen": 6283,
      "ulating": 6284,
      "const": 6285,
      "unpreced": 6286,
      "doc": 6287,
      "interdisciplinary": 6288,
      "fier": 6289,
      "analytics": 6290,
      "dering": 6291,
      "subsets": 6292,
      "Coun": 6293,
      "appears": 6294,
      "annotate": 6295,
      "Encoder": 6296,
      "millions": 6297,
      "augmenting": 6298,
      "scored": 6299,
      "summarize": 6300,
      "examination": 6301,
      "ART": 6302,
      "brow": 6303,
      "globally": 6304,
      "discussion": 6305,
      "prevailing": 6306,
      "reaches": 6307,
      "Prompting": 6308,
      "Parameter": 6309,
      "axes": 6310,
      "repositories": 6311,
      "compatibility": 6312,
      "linked": 6313,
      "correlates": 6314,
      "ecosystem": 6315,
      "begins": 6316,
      "counseling": 6317,
      "proliferation": 6318,
      "unprecedented": 6319,
      "51": 6320,
      "GNN": 6321,
      "fused": 6322,
      "gpt": 6323,
      "ky": 6324,
      "alk": 6325,
      "debiasing": 6326,
      "lean": 6327,
      "concrete": 6328,
      "hot": 6329,
      "ries": 6330,
      "variables": 6331,
      "rence": 6332,
      "developments": 6333,
      "graphy": 6334,
      "Ent": 6335,
      "location": 6336,
      "GenAI": 6337,
      "push": 6338,
      "Stage": 6339,
      "deno": 6340,
      "tendencies": 6341,
      "connection": 6342,
      "correspond": 6343,
      "Reflec": 6344,
      "Subsequently": 6345,
      "After": 6346,
      "Safe": 6347,
      "undermine": 6348,
      "discrepancies": 6349,
      "encounter": 6350,
      "homogen": 6351,
      "poisoning": 6352,
      "05": 6353,
      "Big": 6354,
      "Best": 6355,
      "From": 6356,
      "Fast": 6357,
      "JSON": 6358,
      "ares": 6359,
      "iking": 6360,
      "war": 6361,
      "intra": 6362,
      "atten": 6363,
      "asking": 6364,
      "deception": 6365,
      "coh": 6366,
      "sil": 6367,
      "options": 6368,
      "captions": 6369,
      "analyzes": 6370,
      "offensive": 6371,
      "classifying": 6372,
      "distor": 6373,
      "cultures": 6374,
      "Ada": 6375,
      "chool": 6376,
      "foundations": 6377,
      "requirement": 6378,
      "equal": 6379,
      "harder": 6380,
      "MIC": 6381,
      "emphasis": 6382,
      "injected": 6383,
      "excels": 6384,
      "boosting": 6385,
      "masking": 6386,
      "encouraging": 6387,
      "eliminate": 6388,
      "modification": 6389,
      "discrimination": 6390,
      "PII": 6391,
      "simplified": 6392,
      "trees": 6393,
      "guarantee": 6394,
      "severely": 6395,
      "rejection": 6396,
      "itudinal": 6397,
      "incentiv": 6398,
      "Hierarchical": 6399,
      "DO": 6400,
      "Ground": 6401,
      "LD": 6402,
      "MD": 6403,
      "Sent": 6404,
      "User": 6405,
      "V2": 6406,
      "hacking": 6407,
      "ou": 6408,
      "takes": 6409,
      "cold": 6410,
      "consequences": 6411,
      "unknown": 6412,
      "unlabeled": 6413,
      "ades": 6414,
      "intentions": 6415,
      "lip": 6416,
      "ider": 6417,
      "undes": 6418,
      "manage": 6419,
      "impos": 6420,
      "outliers": 6421,
      "neigh": 6422,
      "ipp": 6423,
      "shed": 6424,
      "advoc": 6425,
      "stepwise": 6426,
      "thematic": 6427,
      "investigating": 6428,
      "thesis": 6429,
      "passage": 6430,
      "learners": 6431,
      "characters": 6432,
      "localized": 6433,
      "Respon": 6434,
      "abstracts": 6435,
      "connect": 6436,
      "included": 6437,
      "assigns": 6438,
      "Post": 6439,
      "retains": 6440,
      "expanded": 6441,
      "diagnoses": 6442,
      "motivated": 6443,
      "softmax": 6444,
      "hyperparameter": 6445,
      "circuit": 6446,
      "AUC": 6447,
      "repetition": 6448,
      "anonym": 6449,
      "anonymous": 6450,
      "flawed": 6451,
      "exemplar": 6452,
      "inadequate": 6453,
      "Standard": 6454,
      ",\"": 6455,
      "Cal": 6456,
      "FA": 6457,
      "FC": 6458,
      "Hallucin": 6459,
      "KB": 6460,
      "Lens": 6461,
      "ND": 6462,
      "PLMs": 6463,
      "cer": 6464,
      "density": 6465,
      "kr": 6466,
      "rhet": 6467,
      "sarcas": 6468,
      "telling": 6469,
      "inverse": 6470,
      "reproduce": 6471,
      "estern": 6472,
      "acc": 6473,
      "sim": 6474,
      "modelling": 6475,
      "dient": 6476,
      "evaluator": 6477,
      "ferential": 6478,
      "comings": 6479,
      "therape": 6480,
      "licit": 6481,
      "longitudinal": 6482,
      "members": 6483,
      "actors": 6484,
      "surprisingly": 6485,
      "Proto": 6486,
      "tempor": 6487,
      "simulates": 6488,
      "shortcomings": 6489,
      "express": 6490,
      "Comput": 6491,
      "asked": 6492,
      "validates": 6493,
      "schemes": 6494,
      "popularity": 6495,
      "Behavi": 6496,
      "maximum": 6497,
      "exists": 6498,
      "equivalence": 6499,
      "Personal": 6500,
      "overlapping": 6501,
      "Turk": 6502,
      "necessitates": 6503,
      "markedly": 6504,
      "radiology": 6505,
      "dictionary": 6506,
      "idiom": 6507,
      "therapeu": 6508,
      "CV": 6509,
      "Def": 6510,
      "EB": 6511,
      "Fil": 6512,
      "Hop": 6513,
      "Linear": 6514,
      "Mat": 6515,
      "PC": 6516,
      "Rem": 6517,
      "eties": 6518,
      "humor": 6519,
      "jour": 6520,
      "sli": 6521,
      "inferences": 6522,
      "escal": 6523,
      "eder": 6524,
      "cosine": 6525,
      "tenance": 6526,
      "typo": 6527,
      "tunes": 6528,
      "Extraction": 6529,
      "upper": 6530,
      "aved": 6531,
      "detects": 6532,
      "GPQA": 6533,
      "NLG": 6534,
      "clinicians": 6535,
      "clinician": 6536,
      "operative": 6537,
      "gradually": 6538,
      "harmless": 6539,
      "classic": 6540,
      "transferability": 6541,
      "verifiers": 6542,
      "cycl": 6543,
      "aggregated": 6544,
      "discussions": 6545,
      "easier": 6546,
      "composed": 6547,
      "remove": 6548,
      "isolate": 6549,
      "GPUs": 6550,
      "adjusts": 6551,
      "modified": 6552,
      "disciplines": 6553,
      "dialects": 6554,
      "distilling": 6555,
      "EHRs": 6556,
      "72B": 6557,
      "empathetic": 6558,
      "African": 6559,
      "Europe": 6560,
      "Importantly": 6561,
      "friend": 6562,
      "therapeutic": 6563,
      "-$": 6564,
      "3x": 6565,
      "Light": 6566,
      "Sup": 6567,
      "kind": 6568,
      "va": 6569,
      "entries": 6570,
      "coefficient": 6571,
      "unlike": 6572,
      "intensity": 6573,
      "lied": 6574,
      "encing": 6575,
      "engaging": 6576,
      "epis": 6577,
      "she": 6578,
      "traffic": 6579,
      "advice": 6580,
      "exploiting": 6581,
      "lock": 6582,
      "dialog": 6583,
      "defines": 6584,
      "look": 6585,
      "conversion": 6586,
      "bounded": 6587,
      "numeric": 6588,
      "sessions": 6589,
      "Accur": 6590,
      "weaker": 6591,
      "organizations": 6592,
      "customized": 6593,
      "constit": 6594,
      "Grok": 6595,
      "determining": 6596,
      "amplify": 6597,
      "Scienti": 6598,
      "shaped": 6599,
      "encompasses": 6600,
      "Step": 6601,
      "violations": 6602,
      "situations": 6603,
      "diseases": 6604,
      "decreases": 6605,
      "Dialo": 6606,
      "decouples": 6607,
      "sustainable": 6608,
      "abstention": 6609,
      "Carlo": 6610,
      "citations": 6611,
      "Bes": 6612,
      "Ed": 6613,
      "Rather": 6614,
      "Us": 6615,
      "Western": 6616,
      "dLLMs": 6617,
      "hints": 6618,
      "ined": 6619,
      "enforces": 6620,
      "ativeness": 6621,
      "leaved": 6622,
      "exposes": 6623,
      "unintended": 6624,
      "aded": 6625,
      "compares": 6626,
      "negoti": 6627,
      "overthinking": 6628,
      "faced": 6629,
      "imes": 6630,
      "lays": 6631,
      "layout": 6632,
      "zech": 6633,
      "unifying": 6634,
      "patch": 6635,
      "Concep": 6636,
      "numbers": 6637,
      "harms": 6638,
      "reviewers": 6639,
      "charts": 6640,
      "Speculative": 6641,
      "fraction": 6642,
      "held": 6643,
      "speaking": 6644,
      "collections": 6645,
      "TAG": 6646,
      "rankings": 6647,
      "CON": 6648,
      "emotionally": 6649,
      "induction": 6650,
      "assignment": 6651,
      "histories": 6652,
      "acquired": 6653,
      "Network": 6654,
      "Effective": 6655,
      "occurs": 6656,
      "Turbo": 6657,
      "Reasoner": 6658,
      "Summar": 6659,
      "breakthrough": 6660,
      "unlock": 6661,
      "Brid": 6662,
      "undermines": 6663,
      "revolutionized": 6664,
      "snipp": 6665,
      "credit": 6666,
      "Monte": 6667,
      "stimul": 6668,
      "Whisper": 6669,
      ".\"": 6670,
      "Czech": 6671,
      "Due": 6672,
      "Fa": 6673,
      "GB": 6674,
      "Hugging": 6675,
      "LR": 6676,
      "SU": 6677,
      "Two": 6678,
      "flat": 6679,
      "national": 6680,
      "pace": 6681,
      "raph": 6682,
      "repair": 6683,
      "readily": 6684,
      "ert": 6685,
      "lif": 6686,
      "elong": 6687,
      "maintenance": 6688,
      "llm": 6689,
      "logit": 6690,
      "crip": 6691,
      "changing": 6692,
      "translates": 6693,
      "introduction": 6694,
      "errone": 6695,
      "2022": 6696,
      "cade": 6697,
      "giving": 6698,
      "adopts": 6699,
      "transferable": 6700,
      "convert": 6701,
      "linearly": 6702,
      "affected": 6703,
      "links": 6704,
      "rounds": 6705,
      "organized": 6706,
      "injecting": 6707,
      "Posi": 6708,
      "Control": 6709,
      "chemical": 6710,
      "kernels": 6711,
      "message": 6712,
      "repetitive": 6713,
      "recursive": 6714,
      "transcription": 6715,
      "Decision": 6716,
      "premises": 6717,
      "exploratory": 6718,
      "Turkish": 6719,
      "/.": 6720,
      "01": 6721,
      "GD": 6722,
      "HI": 6723,
      "Ha": 6724,
      "MRI": 6725,
      "NS": 6726,
      "hon": 6727,
      "iat": 6728,
      "nai": 6729,
      "passive": 6730,
      "erning": 6731,
      "detox": 6732,
      "lymp": 6733,
      "prote": 6734,
      "dilem": 6735,
      "Third": 6736,
      "option": 6737,
      "interview": 6738,
      "subsequently": 6739,
      "relig": 6740,
      "differential": 6741,
      "keywords": 6742,
      "surprising": 6743,
      "virtual": 6744,
      "fold": 6745,
      "Design": 6746,
      "Classi": 6747,
      "Stream": 6748,
      "importantly": 6749,
      "caching": 6750,
      "session": 6751,
      "collaborate": 6752,
      "separation": 6753,
      "planner": 6754,
      "inefficiencies": 6755,
      "compressing": 6756,
      "avoids": 6757,
      "formulates": 6758,
      "Networks": 6759,
      "consumer": 6760,
      "client": 6761,
      "Distillation": 6762,
      "discrepancy": 6763,
      "utterances": 6764,
      "puzzles": 6765,
      "credibility": 6766,
      "Methods": 6767,
      "Entropy": 6768,
      "temporally": 6769,
      "2x": 6770,
      "Dri": 6771,
      "ET": 6772,
      "Fol": 6773,
      "RFT": 6774,
      "Ser": 6775,
      "Wr": 6776,
      "Xiv": 6777,
      "iew": 6778,
      "ned": 6779,
      "ox": 6780,
      "ods": 6781,
      "v3": 6782,
      "}{": 6783,
      "inability": 6784,
      "ano": 6785,
      "anom": 6786,
      "tivi": 6787,
      "cooperative": 6788,
      "gered": 6789,
      "moving": 6790,
      "intensi": 6791,
      "mart": 6792,
      "imm": 6793,
      "generalized": 6794,
      "traditionally": 6795,
      "solvable": 6796,
      "What": 6797,
      "ideation": 6798,
      "toolkit": 6799,
      "Chem": 6800,
      "themes": 6801,
      "Develo": 6802,
      "Recall": 6803,
      "activated": 6804,
      "give": 6805,
      "populations": 6806,
      "13B": 6807,
      "explaining": 6808,
      "psych": 6809,
      "LLaMA3": 6810,
      "familiar": 6811,
      "prevents": 6812,
      "expands": 6813,
      "recipes": 6814,
      "econom": 6815,
      "greedy": 6816,
      "Structured": 6817,
      "altering": 6818,
      "children": 6819,
      "seemingly": 6820,
      "internally": 6821,
      "Review": 6822,
      "avenues": 6823,
      "Temporal": 6824,
      "Sampling": 6825,
      "CNN": 6826,
      "EE": 6827,
      "NO": 6828,
      "Por": 6829,
      "Prob": 6830,
      "Simple": 6831,
      "had": 6832,
      "iving": 6833,
      "pic": 6834,
      "school": 6835,
      "recurrent": 6836,
      "rot": 6837,
      "entail": 6838,
      "forced": 6839,
      "charge": 6840,
      "absent": 6841,
      "diag": 6842,
      "notion": 6843,
      "party": 6844,
      "imaging": 6845,
      "submission": 6846,
      "specification": 6847,
      "travel": 6848,
      "ranks": 6849,
      "supp": 6850,
      "commit": 6851,
      "instructional": 6852,
      "Project": 6853,
      "cognitively": 6854,
      "judic": 6855,
      "Engine": 6856,
      "succeed": 6857,
      "evolves": 6858,
      "AST": 6859,
      "distinctive": 6860,
      "distinctions": 6861,
      "theorem": 6862,
      "degraded": 6863,
      "formalization": 6864,
      "demanding": 6865,
      "symbol": 6866,
      "considerations": 6867,
      "IDF": 6868,
      "profile": 6869,
      "ineffective": 6870,
      "prioritizing": 6871,
      "Systems": 6872,
      "determines": 6873,
      "cumulative": 6874,
      "meticul": 6875,
      "clipping": 6876,
      "receive": 6877,
      "India": 6878,
      "keeping": 6879,
      "Causal": 6880,
      "mirr": 6881,
      "Gaussian": 6882,
      "News": 6883,
      "quickly": 6884,
      "Dialogue": 6885,
      "($\\": 6886,
      "EV": 6887,
      "FR": 6888,
      "Mic": 6889,
      "Nam": 6890,
      "Vari": 6891,
      "aken": 6892,
      "bing": 6893,
      "etry": 6894,
      "righ": 6895,
      "edited": 6896,
      "root": 6897,
      "assemb": 6898,
      "left": 6899,
      "accomp": 6900,
      "urban": 6901,
      "quir": 6902,
      "compil": 6903,
      "agraph": 6904,
      "Info": 6905,
      "interleaved": 6906,
      "facto": 6907,
      "transfers": 6908,
      "corner": 6909,
      "submissions": 6910,
      "codebase": 6911,
      "jection": 6912,
      "robustly": 6913,
      "inclusion": 6914,
      "Adversarial": 6915,
      "\\%.": 6916,
      "internalize": 6917,
      "querying": 6918,
      "grading": 6919,
      "ropic": 6920,
      "estimated": 6921,
      "LLA": 6922,
      "implementing": 6923,
      "categorized": 6924,
      "Story": 6925,
      "grows": 6926,
      "concerning": 6927,
      "MCTS": 6928,
      "helping": 6929,
      "MIMIC": 6930,
      "faithfully": 6931,
      "prototype": 6932,
      "injects": 6933,
      "inefficiency": 6934,
      "compresses": 6935,
      "professionals": 6936,
      "phrases": 6937,
      "phrasing": 6938,
      "Detecting": 6939,
      "Contin": 6940,
      "AUROC": 6941,
      "mutual": 6942,
      "chemistry": 6943,
      "substit": 6944,
      "shorter": 6945,
      "ABSA": 6946,
      "ignore": 6947,
      "replacing": 6948,
      "friendly": 6949,
      "AV": 6950,
      "CAP": 6951,
      "Olymp": 6952,
      "RU": 6953,
      "Rot": 6954,
      "XLM": 6955,
      "hi": 6956,
      "iad": 6957,
      "lag": 6958,
      "rever": 6959,
      "roo": 6960,
      "stone": 6961,
      "astically": 6962,
      "toms": 6963,
      "ford": 6964,
      "profound": 6965,
      "tric": 6966,
      "string": 6967,
      "guese": 6968,
      "poly": 6969,
      "genre": 6970,
      "hosp": 6971,
      "scaf": 6972,
      "tuguese": 6973,
      "paragraph": 6974,
      "Index": 6975,
      "captured": 6976,
      "Mod": 6977,
      "licity": 6978,
      "rendering": 6979,
      "optimizations": 6980,
      "graphics": 6981,
      "socially": 6982,
      "unifies": 6983,
      "simplicity": 6984,
      "counts": 6985,
      "markers": 6986,
      "adopting": 6987,
      "converts": 6988,
      "formatting": 6989,
      "correcting": 6990,
      "organize": 6991,
      "clearly": 6992,
      "removes": 6993,
      "randomly": 6994,
      "Docu": 6995,
      "competing": 6996,
      "guideline": 6997,
      "projects": 6998,
      "monolith": 6999,
      "decrease": 7000,
      "empower": 7001,
      "companied": 7002,
      "sharply": 7003,
      "Router": 7004,
      "electronic": 7005,
      "DistilBERT": 7006,
      "T2I": 7007,
      "Challenge": 7008,
      "sarcasm": 7009,
      "Besides": 7010,
      "snippets": 7011,
      "Micro": 7012,
      "%-": 7013,
      "Assess": 7014,
      "Back": 7015,
      "Future": 7016,
      "Pe": 7017,
      "Path": 7018,
      "RD": 7019,
      "Ret": 7020,
      "Random": 7021,
      "Twit": 7022,
      "cup": 7023,
      "cancer": 7024,
      "git": 7025,
      "ske": 7026,
      "warding": 7027,
      "invariant": 7028,
      "inadver": 7029,
      "replay": 7030,
      "store": 7031,
      "ars": 7032,
      "ury": 7033,
      "managing": 7034,
      "arian": 7035,
      "ested": 7036,
      "imitation": 7037,
      "subspaces": 7038,
      "jective": 7039,
      "server": 7040,
      "relied": 7041,
      "worldwide": 7042,
      "regimes": 7043,
      "locations": 7044,
      "univers": 7045,
      "unimodal": 7046,
      "Prog": 7047,
      "ifies": 7048,
      "crash": 7049,
      "similarly": 7050,
      "otstr": 7051,
      "highlighted": 7052,
      "closer": 7053,
      "filtered": 7054,
      "possi": 7055,
      "minimize": 7056,
      "equally": 7057,
      "deeply": 7058,
      "Within": 7059,
      "Without": 7060,
      "routine": 7061,
      "Graphs": 7062,
      "diagnostics": 7063,
      "aggregating": 7064,
      "manipulate": 7065,
      "Interest": 7066,
      "watermark": 7067,
      "elev": 7068,
      "chunking": 7069,
      "controllability": 7070,
      "recognizing": 7071,
      "marketing": 7072,
      "resistance": 7073,
      "anchor": 7074,
      "incrementally": 7075,
      "shortcuts": 7076,
      "cybersecurity": 7077,
      "Global": 7078,
      "Response": 7079,
      "erroneous": 7080,
      "Follow": 7081,
      "tivities": 7082,
      "Portuguese": 7083,
      "Named": 7084,
      "Olympiad": 7085,
      "inadvert": 7086,
      "\")": 7087,
      "$.": 7088,
      "120": 7089,
      "Amer": 7090,
      "Cop": 7091,
      "CAR": 7092,
      "Fusion": 7093,
      "GC": 7094,
      "Mal": 7095,
      "Mis": 7096,
      "Sing": 7097,
      "Spo": 7098,
      "Stu": 7099,
      "Tun": 7100,
      "crow": 7101,
      "gath": 7102,
      "hing": 7103,
      "mentions": 7104,
      "pi": 7105,
      "ru": 7106,
      "xi": 7107,
      "indirect": 7108,
      "inquir": 7109,
      "robot": 7110,
      "acted": 7111,
      "accompanied": 7112,
      "semble": 7113,
      "pert": 7114,
      "ulated": 7115,
      "conds": 7116,
      "appa": 7117,
      "striking": 7118,
      "forming": 7119,
      "poetry": 7120,
      "contained": 7121,
      "overconfidence": 7122,
      "lowest": 7123,
      "AIR": 7124,
      "graphical": 7125,
      "exploits": 7126,
      "CoTs": 7127,
      "Arch": 7128,
      "STEM": 7129,
      "communicate": 7130,
      "parallelism": 7131,
      "functionality": 7132,
      "CORE": 7133,
      "maximizing": 7134,
      "Steering": 7135,
      "empowers": 7136,
      "Taken": 7137,
      "Alpaca": 7138,
      "triplets": 7139,
      "therapy": 7140,
      "Conversational": 7141,
      "Contrastive": 7142,
      "Iterative": 7143,
      "cascaded": 7144,
      "cornerstone": 7145,
      "monolithic": 7146,
      "inadvertently": 7147,
      "Brow": 7148,
      "Few": 7149,
      "Hu": 7150,
      "LC": 7151,
      "NA": 7152,
      "XL": 7153,
      "href": 7154,
      "pp": 7155,
      "pilot": 7156,
      "tagging": 7157,
      "}}": 7158,
      "replaces": 7159,
      "tice": 7160,
      "stake": 7161,
      "today": 7162,
      "accom": 7163,
      "ental": 7164,
      "proactively": 7165,
      "abund": 7166,
      "trunc": 7167,
      "unbiased": 7168,
      "uncovers": 7169,
      "stru": 7170,
      "rival": 7171,
      "hamp": 7172,
      "undermining": 7173,
      "fiers": 7174,
      "subtask": 7175,
      "ReAct": 7176,
      "solver": 7177,
      "solved": 7178,
      "reductions": 7179,
      "layered": 7180,
      "surpr": 7181,
      "mature": 7182,
      "Contextual": 7183,
      "MAR": 7184,
      "quantized": 7185,
      "streams": 7186,
      "otherwise": 7187,
      "Former": 7188,
      "Deepseek": 7189,
      "discard": 7190,
      "CodeBench": 7191,
      "route": 7192,
      "affecting": 7193,
      "jailbreaks": 7194,
      "leness": 7195,
      "separately": 7196,
      "assigning": 7197,
      "composite": 7198,
      "sections": 7199,
      "removal": 7200,
      "inferring": 7201,
      "existence": 7202,
      "bottom": 7203,
      "paraphrase": 7204,
      "arkably": 7205,
      "phrase": 7206,
      "ICD": 7207,
      "ideological": 7208,
      "biological": 7209,
      "neglect": 7210,
      "Applying": 7211,
      "Gradient": 7212,
      "Prediction": 7213,
      "versatile": 7214,
      "fingerprint": 7215,
      "undesirable": 7216,
      "neighbor": 7217,
      "Protocol": 7218,
      "Remarkably": 7219,
      "European": 7220,
      "Twitter": 7221,
      "Americ": 7222,
      "800": 7223,
      "But": 7224,
      "Fal": 7225,
      "GRA": 7226,
      "Mus": 7227,
      "RNN": 7228,
      "Russian": 7229,
      "SPE": 7230,
      "Tab": 7231,
      "aS": 7232,
      "bly": 7233,
      "cris": 7234,
      "fab": 7235,
      "iation": 7236,
      "none": 7237,
      "pit": 7238,
      "year": 7239,
      "aters": 7240,
      "retro": 7241,
      "assum": 7242,
      "deficiencies": 7243,
      "ulates": 7244,
      "advers": 7245,
      "compens": 7246,
      "compelling": 7247,
      "iration": 7248,
      "plural": 7249,
      "neither": 7250,
      "showcase": 7251,
      "learner": 7252,
      "deriv": 7253,
      "searches": 7254,
      "standalone": 7255,
      "tokenizers": 7256,
      "cript": 7257,
      "visually": 7258,
      "realism": 7259,
      "advent": 7260,
      "statement": 7261,
      "autoencoders": 7262,
      "Char": 7263,
      "iterations": 7264,
      "groundwork": 7265,
      "similarities": 7266,
      "controls": 7267,
      "occup": 7268,
      "synthetically": 7269,
      "ARD": 7270,
      "readers": 7271,
      "categorization": 7272,
      "dimensionality": 7273,
      "arent": 7274,
      "lining": 7275,
      "interesting": 7276,
      "CPT": 7277,
      "inferred": 7278,
      "Head": 7279,
      "occurrence": 7280,
      "Synth": 7281,
      "circum": 7282,
      "PTQ": 7283,
      "received": 7284,
      "solid": 7285,
      "tutoring": 7286,
      "Criti": 7287,
      "topology": 7288,
      "branch": 7289,
      "implements": 7290,
      "copyright": 7291,
      "instantiate": 7292,
      "scholarly": 7293,
      "disambiguation": 7294,
      "roadmap": 7295,
      "ablations": 7296,
      "denoising": 7297,
      "exemplars": 7298,
      "rhetorical": 7299,
      "-,": 7300,
      "150": 7301,
      "Gree": 7302,
      "LV": 7303,
      "OT": 7304,
      "Sty": 7305,
      "Ter": 7306,
      "element": 7307,
      "fus": 7308,
      "fuses": 7309,
      "o4": 7310,
      "san": 7311,
      "sics": 7312,
      "smart": 7313,
      "uate": 7314,
      "inev": 7315,
      "invoc": 7316,
      "returns": 7317,
      "default": 7318,
      "icine": 7319,
      "mobility": 7320,
      "proves": 7321,
      "seconds": 7322,
      "confound": 7323,
      "iling": 7324,
      "did": 7325,
      "divid": 7326,
      "formally": 7327,
      "ellec": 7328,
      "prefer": 7329,
      "multidimensional": 7330,
      "Theore": 7331,
      "food": 7332,
      "codebook": 7333,
      "diverge": 7334,
      "mind": 7335,
      "interpretive": 7336,
      "Trace": 7337,
      "refuse": 7338,
      "paradox": 7339,
      "activate": 7340,
      "estimating": 7341,
      "engineered": 7342,
      "aggressive": 7343,
      "converge": 7344,
      "suggestions": 7345,
      "confirmed": 7346,
      "debugging": 7347,
      "physician": 7348,
      "leaves": 7349,
      "South": 7350,
      "anticip": 7351,
      "opportunity": 7352,
      "shapes": 7353,
      "Planning": 7354,
      "modify": 7355,
      "decline": 7356,
      "polarity": 7357,
      "starting": 7358,
      "viewer": 7359,
      "analogous": 7360,
      "exponential": 7361,
      "reinforcing": 7362,
      "mappings": 7363,
      "mentioned": 7364,
      "extrapolation": 7365,
      "Debate": 7366,
      "ensembles": 7367,
      "Behavior": 7368,
      "journal": 7369,
      "Concept": 7370,
      "Bridge": 7371,
      "honest": 7372,
      "diagra": 7373,
      "Document": 7374,
      "->": 7375,
      "4open": 7376,
      "FU": 7377,
      "Gym": 7378,
      "Harm": 7379,
      "Ko": 7380,
      "Lex": 7381,
      "LAS": 7382,
      "NCH": 7383,
      "R2": 7384,
      "Rob": 7385,
      "Sec": 7386,
      "Sol": 7387,
      "UI": 7388,
      "ah": 7389,
      "aug": 7390,
      "dur": 7391,
      "fuse": 7392,
      "sen": 7393,
      "vice": 7394,
      "instru": 7395,
      "deed": 7396,
      "motion": 7397,
      "achines": 7398,
      "multifaceted": 7399,
      "interval": 7400,
      "ressing": 7401,
      "alignments": 7402,
      "Hot": 7403,
      "licen": 7404,
      "computes": 7405,
      "divergent": 7406,
      "tracks": 7407,
      "tractable": 7408,
      "001": 7409,
      "embeds": 7410,
      "Trust": 7411,
      "practicality": 7412,
      "poster": 7413,
      "lexic": 7414,
      "society": 7415,
      "losses": 7416,
      "MCQs": 7417,
      "routes": 7418,
      "Role": 7419,
      "bounds": 7420,
      "transport": 7421,
      "memorize": 7422,
      "aggregates": 7423,
      "decide": 7424,
      "Verification": 7425,
      "perturbed": 7426,
      "subjectivity": 7427,
      "bilities": 7428,
      "loading": 7429,
      "criterion": 7430,
      "Questions": 7431,
      "motivating": 7432,
      "motivates": 7433,
      "amplifying": 7434,
      "Interpre": 7435,
      "adequately": 7436,
      "justifications": 7437,
      "deliberate": 7438,
      "screen": 7439,
      "AGI": 7440,
      "manifest": 7441,
      "incremental": 7442,
      "disentangle": 7443,
      "slang": 7444,
      "intentionally": 7445,
      "tweets": 7446,
      "Cultural": 7447,
      "expressiveness": 7448,
      "disclosure": 7449,
      "democrati": 7450,
      "Boost": 7451,
      "constant": 7452,
      "Accuracy": 7453,
      "negotiation": 7454,
      "detoxification": 7455,
      "meticulously": 7456,
      "Spoken": 7457,
      "augments": 7458,
      "(\"": 7459,
      "):": 7460,
      "Da": 7461,
      "GM": 7462,
      "If": 7463,
      "KI": 7464,
      "TOD": 7465,
      "Uti": 7466,
      "Ve": 7467,
      "file": 7468,
      "gar": 7469,
      "slo": 7470,
      "onic": 7471,
      "reality": 7472,
      "reconstruct": 7473,
      "referred": 7474,
      "anger": 7475,
      "arative": 7476,
      "arrow": 7477,
      "atim": 7478,
      "proso": 7479,
      "mere": 7480,
      "uns": 7481,
      "tension": 7482,
      "amic": 7483,
      "structuring": 7484,
      "rection": 7485,
      "Tok": 7486,
      "teen": 7487,
      "vention": 7488,
      "imit": 7489,
      "scaled": 7490,
      "searching": 7491,
      "Modeling": 7492,
      "opens": 7493,
      "obfus": 7494,
      "umn": 7495,
      "umes": 7496,
      "away": 7497,
      "questionnai": 7498,
      "sequentially": 7499,
      "deployable": 7500,
      "preserved": 7501,
      "publications": 7502,
      "incorporated": 7503,
      "objects": 7504,
      "evolved": 7505,
      "richness": 7506,
      "trusted": 7507,
      "negation": 7508,
      "agged": 7509,
      "Star": 7510,
      "harmfulness": 7511,
      "overlooks": 7512,
      "reasonable": 7513,
      "ethically": 7514,
      "teachers": 7515,
      "psychometric": 7516,
      "resolved": 7517,
      "front": 7518,
      "persists": 7519,
      "spatio": 7520,
      "separates": 7521,
      "SPAR": 7522,
      "Searcher": 7523,
      "versely": 7524,
      "paraphrases": 7525,
      "paraphrased": 7526,
      "incurring": 7527,
      "proofs": 7528,
      "uzzy": 7529,
      "plausibility": 7530,
      "BENCH": 7531,
      "deliberation": 7532,
      "trials": 7533,
      "orchestration": 7534,
      "Norm": 7535,
      "partition": 7536,
      "perceptions": 7537,
      "Alpha": 7538,
      "Tech": 7539,
      "symptoms": 7540,
      "footprint": 7541,
      "Romanian": 7542,
      "FLOPs": 7543,
      "Quality": 7544,
      "Refinement": 7545,
      "Evolve": 7546,
      "metaphor": 7547,
      "ederated": 7548,
      "Interestingly": 7549,
      "fabric": 7550,
      "Critique": 7551,
      "ellectual": 7552,
      "600": 7553,
      "BO": 7554,
      "Bl": 7555,
      "Cons": 7556,
      "CER": 7557,
      "Dev": 7558,
      "Del": 7559,
      "EF": 7560,
      "Evid": 7561,
      "Free": 7562,
      "Five": 7563,
      "GI": 7564,
      "MW": 7565,
      "Nemo": 7566,
      "SCA": 7567,
      "VE": 7568,
      "cation": 7569,
      "idio": 7570,
      "tory": 7571,
      "warm": 7572,
      "ony": 7573,
      "onym": 7574,
      "thing": 7575,
      "enforcing": 7576,
      "exha": 7577,
      "excell": 7578,
      "exposed": 7579,
      "trading": 7580,
      "delay": 7581,
      "conserv": 7582,
      "unrelated": 7583,
      "until": 7584,
      "unexpected": 7585,
      "ditive": 7586,
      "qui": 7587,
      "spl": 7588,
      "outlines": 7589,
      "bootstr": 7590,
      "Coh": 7591,
      "added": 7592,
      "benchmarked": 7593,
      "omit": 7594,
      "miss": 7595,
      "minutes": 7596,
      "appe": 7597,
      "backward": 7598,
      "confron": 7599,
      "phil": 7600,
      "extractive": 7601,
      "Conv": 7602,
      "Add": 7603,
      "passing": 7604,
      "linguistics": 7605,
      "contextualized": 7606,
      "readable": 7607,
      "Complex": 7608,
      "12B": 7609,
      "caches": 7610,
      "respective": 7611,
      "geographic": 7612,
      "demographics": 7613,
      "contrasting": 7614,
      "inducing": 7615,
      "obtaining": 7616,
      "retained": 7617,
      "Lean": 7618,
      "quantitatively": 7619,
      "Intent": 7620,
      "Mathematic": 7621,
      "overestim": 7622,
      "suppress": 7623,
      "verbalized": 7624,
      "Hybrid": 7625,
      "Scale": 7626,
      "neuroscience": 7627,
      "MATH500": 7628,
      "indexing": 7629,
      "calculation": 7630,
      "exempli": 7631,
      "rerankers": 7632,
      "verbatim": 7633,
      "causally": 7634,
      "investment": 7635,
      "Lastly": 7636,
      "Sentence": 7637,
      "Hallucination": 7638,
      "scaffol": 7639,
      "AA": 7640,
      "Dist": 7641,
      "Edu": 7642,
      "Fore": 7643,
      "GO": 7644,
      "Gs": 7645,
      "Lite": 7646,
      "MH": 7647,
      "Match": 7648,
      "Phy": 7649,
      "RR": 7650,
      "UD": 7651,
      "civ": 7652,
      "ome": 7653,
      "osing": 7654,
      "race": 7655,
      "inaccuracies": 7656,
      "ateness": 7657,
      "ests": 7658,
      "rogate": 7659,
      "stored": 7660,
      "degre": 7661,
      "accent": 7662,
      "exchange": 7663,
      "sification": 7664,
      "confin": 7665,
      "contrac": 7666,
      "strati": 7667,
      "evid": 7668,
      "adth": 7669,
      "Thai": 7670,
      "raised": 7671,
      "olinguistic": 7672,
      "ignoring": 7673,
      "internet": 7674,
      "interviews": 7675,
      "finally": 7676,
      "ToT": 7677,
      "understudied": 7678,
      "asser": 7679,
      "imbalanced": 7680,
      "master": 7681,
      "ione": 7682,
      "developmental": 7683,
      "synchron": 7684,
      "osity": 7685,
      "RLs": 7686,
      "keys": 7687,
      "comprehend": 7688,
      "brings": 7689,
      "refers": 7690,
      "scious": 7691,
      "column": 7692,
      "harmon": 7693,
      "wrong": 7694,
      "breadth": 7695,
      "stylo": 7696,
      "continues": 7697,
      "influencing": 7698,
      "MET": 7699,
      "purposes": 7700,
      "cycle": 7701,
      "rounding": 7702,
      "uniquely": 7703,
      "appropriately": 7704,
      "running": 7705,
      "consul": 7706,
      "LongBench": 7707,
      "amplifies": 7708,
      "ontologies": 7709,
      "authoritative": 7710,
      "argumentative": 7711,
      "strictly": 7712,
      "authenticity": 7713,
      "drastically": 7714,
      "morphologically": 7715,
      "country": 7716,
      "coordinates": 7717,
      "Embeddings": 7718,
      "cardio": 7719,
      "deviations": 7720,
      "inspire": 7721,
      "inspiration": 7722,
      "accounts": 7723,
      "asymmetry": 7724,
      "breakthroughs": 7725,
      "Robust": 7726,
      "degrees": 7727,
      "BF": 7728,
      "CK": 7729,
      "Cre": 7730,
      "E2": 7731,
      "HE": 7732,
      "Mi": 7733,
      "Ty": 7734,
      "Up": 7735,
      "VI": 7736,
      "Water": 7737,
      "fig": 7738,
      "flo": 7739,
      "ium": 7740,
      "ode": 7741,
      "ological": 7742,
      "sals": 7743,
      "yo": 7744,
      "ycle": 7745,
      "inner": 7746,
      "inherit": 7747,
      "reusing": 7748,
      "enough": 7749,
      "tied": 7750,
      "ora": 7751,
      "decode": 7752,
      "unavailable": 7753,
      "divide": 7754,
      "lie": 7755,
      "impair": 7756,
      "tends": 7757,
      "paralle": 7758,
      "interplay": 7759,
      "systemic": 7760,
      "spective": 7761,
      "proposals": 7762,
      "disagreement": 7763,
      "obst": 7764,
      "apped": 7765,
      "naturalness": 7766,
      "Conclu": 7767,
      "DeBERTa": 7768,
      "cast": 7769,
      "operator": 7770,
      "Sequ": 7771,
      "atorial": 7772,
      "minimizes": 7773,
      "describes": 7774,
      "tradeoff": 7775,
      "initially": 7776,
      "Spider": 7777,
      "Activ": 7778,
      "geospatial": 7779,
      "Mechan": 7780,
      "Neur": 7781,
      "positioning": 7782,
      "ashion": 7783,
      "Shared": 7784,
      "occurring": 7785,
      "blue": 7786,
      "Implicit": 7787,
      "uniformly": 7788,
      "recognized": 7789,
      "titution": 7790,
      "genuinely": 7791,
      "Viet": 7792,
      "accordingly": 7793,
      "switch": 7794,
      "utterance": 7795,
      "Confidence": 7796,
      "Predic": 7797,
      "symptom": 7798,
      "pinpoint": 7799,
      "Representation": 7800,
      "workloads": 7801,
      "bandwidth": 7802,
      "supplement": 7803,
      "websites": 7804,
      "institutions": 7805,
      "Counter": 7806,
      "advocate": 7807,
      "Filter": 7808,
      "Classification": 7809,
      "Evidence": 7810,
      "Addressing": 7811,
      "$)": 7812,
      "4x": 7813,
      "8x": 7814,
      "Dr": 7815,
      "Elec": 7816,
      "Easy": 7817,
      "Fi": 7818,
      "Four": 7819,
      "IO": 7820,
      "Isl": 7821,
      "KT": 7822,
      "LP": 7823,
      "Law": 7824,
      "LRM": 7825,
      "My": 7826,
      "Map": 7827,
      "NP": 7828,
      "PM": 7829,
      "Pat": 7830,
      "Sentiment": 7831,
      "UE": 7832,
      "VQ": 7833,
      "bri": 7834,
      "bug": 7835,
      "fly": 7836,
      "gated": 7837,
      "pan": 7838,
      "pione": 7839,
      "sex": 7840,
      "sali": 7841,
      "yu": 7842,
      "ino": 7843,
      "esting": 7844,
      "arXiv": 7845,
      "cope": 7846,
      "exer": 7847,
      "resourced": 7848,
      "versi": 7849,
      "ader": 7850,
      "intellectual": 7851,
      "essay": 7852,
      "lia": 7853,
      "agricul": 7854,
      "spelling": 7855,
      "ray": 7856,
      "monot": 7857,
      "framed": 7858,
      "canon": 7859,
      "Their": 7860,
      "ductive": 7861,
      "optimizer": 7862,
      "servers": 7863,
      "identities": 7864,
      "unction": 7865,
      "answerable": 7866,
      "MAP": 7867,
      "Recur": 7868,
      "Local": 7869,
      "yielded": 7870,
      "Uncertainty": 7871,
      "China": 7872,
      "corrections": 7873,
      "taxonom": 7874,
      "defend": 7875,
      "abstractive": 7876,
      "considerably": 7877,
      "GEC": 7878,
      "wider": 7879,
      "masks": 7880,
      "formulating": 7881,
      "leave": 7882,
      "stores": 7883,
      "Short": 7884,
      "Relation": 7885,
      "lists": 7886,
      "cataly": 7887,
      "amplified": 7888,
      "Comm": 7889,
      "ViT": 7890,
      "medication": 7891,
      "morphological": 7892,
      "differentiable": 7893,
      "coordinate": 7894,
      "finetune": 7895,
      "Brain": 7896,
      "Quantization": 7897,
      "PubMed": 7898,
      "obscure": 7899,
      "skipping": 7900,
      "Ultimately": 7901,
      "verbosity": 7902,
      "BBQ": 7903,
      "Geo": 7904,
      "Image": 7905,
      "browsing": 7906,
      "Grounded": 7907,
      "Following": 7908,
      "Islamic": 7909,
      "2SQL": 7910,
      "6B": 7911,
      "Ara": 7912,
      "DC": 7913,
      "FM": 7914,
      "Fs": 7915,
      "HS": 7916,
      "Har": 7917,
      "Link": 7918,
      "Mental": 7919,
      "Pair": 7920,
      "QE": 7921,
      "Sch": 7922,
      "SPO": 7923,
      "bank": 7924,
      "carri": 7925,
      "fashion": 7926,
      "iosity": 7927,
      "jar": 7928,
      "squ": 7929,
      "wa": 7930,
      "alinguistic": 7931,
      "oracle": 7932,
      "asks": 7933,
      "conscious": 7934,
      "unable": 7935,
      "weaken": 7936,
      "verifies": 7937,
      "aps": 7938,
      "utor": 7939,
      "utch": 7940,
      "formed": 7941,
      "lost": 7942,
      "adj": 7943,
      "pout": 7944,
      "genres": 7945,
      "emulate": 7946,
      "izable": 7947,
      "contents": 7948,
      "plate": 7949,
      "prepar": 7950,
      "oppon": 7951,
      "pressure": 7952,
      "fraud": 7953,
      "spect": 7954,
      "signatures": 7955,
      "undergo": 7956,
      "immediate": 7957,
      "completions": 7958,
      "Exec": 7959,
      "RAM": 7960,
      "visible": 7961,
      "generalizing": 7962,
      "biology": 7963,
      "Rele": 7964,
      "openly": 7965,
      "tracing": 7966,
      "umer": 7967,
      "coreference": 7968,
      "commands": 7969,
      "shots": 7970,
      "classified": 7971,
      "responding": 7972,
      "university": 7973,
      "bring": 7974,
      "grounds": 7975,
      "patho": 7976,
      "Conversely": 7977,
      "cratic": 7978,
      "struggling": 7979,
      "positives": 7980,
      "progression": 7981,
      "Unlearning": 7982,
      "United": 7983,
      "possibility": 7984,
      "collecting": 7985,
      "attackers": 7986,
      "judging": 7987,
      "judged": 7988,
      "Online": 7989,
      "LLaVA": 7990,
      "factory": 7991,
      "descriptive": 7992,
      "organizes": 7993,
      "connectivity": 7994,
      "resolving": 7995,
      "Bidirectional": 7996,
      "Preliminary": 7997,
      "writes": 7998,
      "checkpoint": 7999
    },
    "merges": [
      [
        "i",
        "n"
      ],
      [
        "o",
        "n"
      ],
      [
        "a",
        "t"
      ],
      [
        "r",
        "e"
      ],
      [
        "a",
        "n"
      ],
      [
        "t",
        "h"
      ],
      [
        "e",
        "n"
      ],
      [
        "e",
        "r"
      ],
      [
        "a",
        "l"
      ],
      [
        "in",
        "g"
      ],
      [
        "e",
        "s"
      ],
      [
        "t",
        "i"
      ],
      [
        "o",
        "r"
      ],
      [
        "e",
        "d"
      ],
      [
        "r",
        "o"
      ],
      [
        "s",
        "t"
      ],
      [
        "a",
        "r"
      ],
      [
        "a",
        "s"
      ],
      [
        "an",
        "d"
      ],
      [
        "at",
        "i"
      ],
      [
        "th",
        "e"
      ],
      [
        "d",
        "e"
      ],
      [
        "l",
        "e"
      ],
      [
        "i",
        "c"
      ],
      [
        "i",
        "s"
      ],
      [
        "t",
        "o"
      ],
      [
        "a",
        "c"
      ],
      [
        "ati",
        "on"
      ],
      [
        "en",
        "t"
      ],
      [
        "o",
        "f"
      ],
      [
        "i",
        "t"
      ],
      [
        "v",
        "e"
      ],
      [
        "f",
        "or"
      ],
      [
        "c",
        "o"
      ],
      [
        "m",
        "p"
      ],
      [
        "l",
        "y"
      ],
      [
        "g",
        "e"
      ],
      [
        "u",
        "r"
      ],
      [
        "m",
        "o"
      ],
      [
        "c",
        "e"
      ],
      [
        "e",
        "x"
      ],
      [
        "c",
        "h"
      ],
      [
        "p",
        "ro"
      ],
      [
        "s",
        "i"
      ],
      [
        "s",
        "e"
      ],
      [
        "ti",
        "on"
      ],
      [
        "a",
        "b"
      ],
      [
        "t",
        "r"
      ],
      [
        "de",
        "l"
      ],
      [
        "m",
        "e"
      ],
      [
        "p",
        "er"
      ],
      [
        "re",
        "s"
      ],
      [
        "L",
        "M"
      ],
      [
        "u",
        "l"
      ],
      [
        "c",
        "on"
      ],
      [
        "L",
        "LM"
      ],
      [
        "u",
        "n"
      ],
      [
        "a",
        "in"
      ],
      [
        "e",
        "c"
      ],
      [
        "w",
        "e"
      ],
      [
        "v",
        "er"
      ],
      [
        "a",
        "p"
      ],
      [
        "mo",
        "del"
      ],
      [
        "at",
        "e"
      ],
      [
        "i",
        "g"
      ],
      [
        "m",
        "ent"
      ],
      [
        "i",
        "l"
      ],
      [
        "st",
        "r"
      ],
      [
        "u",
        "t"
      ],
      [
        "d",
        "i"
      ],
      [
        "i",
        "th"
      ],
      [
        "th",
        "at"
      ],
      [
        "for",
        "m"
      ],
      [
        "t",
        "s"
      ],
      [
        "l",
        "o"
      ],
      [
        "s",
        "u"
      ],
      [
        "e",
        "v"
      ],
      [
        "a",
        "d"
      ],
      [
        "it",
        "y"
      ],
      [
        "u",
        "s"
      ],
      [
        "g",
        "u"
      ],
      [
        "a",
        "ge"
      ],
      [
        "w",
        "ith"
      ],
      [
        "LLM",
        "s"
      ],
      [
        "q",
        "u"
      ],
      [
        "f",
        "ic"
      ],
      [
        "in",
        "t"
      ],
      [
        "ti",
        "c"
      ],
      [
        "co",
        "mp"
      ],
      [
        "u",
        "c"
      ],
      [
        "n",
        "o"
      ],
      [
        "p",
        "o"
      ],
      [
        "an",
        "gu"
      ],
      [
        "w",
        "h"
      ],
      [
        "es",
        "s"
      ],
      [
        "g",
        "en"
      ],
      [
        "model",
        "s"
      ],
      [
        "d",
        "at"
      ],
      [
        "l",
        "i"
      ],
      [
        "w",
        "or"
      ],
      [
        "i",
        "r"
      ],
      [
        "e",
        "t"
      ],
      [
        "T",
        "h"
      ],
      [
        "ac",
        "h"
      ],
      [
        "angu",
        "age"
      ],
      [
        "i",
        "d"
      ],
      [
        "an",
        "ce"
      ],
      [
        "ex",
        "t"
      ],
      [
        "a",
        "re"
      ],
      [
        "a",
        "g"
      ],
      [
        "gen",
        "er"
      ],
      [
        "e",
        "m"
      ],
      [
        "re",
        "as"
      ],
      [
        "k",
        "s"
      ],
      [
        "ev",
        "al"
      ],
      [
        "i",
        "z"
      ],
      [
        "ar",
        "ge"
      ],
      [
        "ation",
        "s"
      ],
      [
        "in",
        "e"
      ],
      [
        "ig",
        "h"
      ],
      [
        "s",
        "p"
      ],
      [
        "e",
        "re"
      ],
      [
        "per",
        "form"
      ],
      [
        "h",
        "o"
      ],
      [
        "al",
        "ly"
      ],
      [
        "ab",
        "le"
      ],
      [
        "W",
        "e"
      ],
      [
        "re",
        "d"
      ],
      [
        "b",
        "y"
      ],
      [
        "e",
        "f"
      ],
      [
        "al",
        "l"
      ],
      [
        "ab",
        "il"
      ],
      [
        "un",
        "d"
      ],
      [
        "b",
        "as"
      ],
      [
        "o",
        "ur"
      ],
      [
        "ti",
        "ve"
      ],
      [
        "r",
        "a"
      ],
      [
        "th",
        "is"
      ],
      [
        "on",
        "ing"
      ],
      [
        "m",
        "an"
      ],
      [
        "t",
        "as"
      ],
      [
        "i",
        "mp"
      ],
      [
        "o",
        "l"
      ],
      [
        "l",
        "anguage"
      ],
      [
        "r",
        "i"
      ],
      [
        "wor",
        "k"
      ],
      [
        "con",
        "t"
      ],
      [
        "th",
        "o"
      ],
      [
        "reas",
        "oning"
      ],
      [
        "eval",
        "u"
      ],
      [
        "m",
        "ar"
      ],
      [
        "e",
        "l"
      ],
      [
        "t",
        "er"
      ],
      [
        "s",
        "y"
      ],
      [
        "at",
        "ed"
      ],
      [
        "p",
        "l"
      ],
      [
        "m",
        "ul"
      ],
      [
        "d",
        "ing"
      ],
      [
        "u",
        "g"
      ],
      [
        "t",
        "en"
      ],
      [
        "o",
        "ut"
      ],
      [
        "i",
        "fic"
      ],
      [
        "s",
        "c"
      ],
      [
        "d",
        "o"
      ],
      [
        "t",
        "ing"
      ],
      [
        "s",
        "s"
      ],
      [
        "ro",
        "m"
      ],
      [
        "tr",
        "ain"
      ],
      [
        "t",
        "u"
      ],
      [
        "m",
        "ain"
      ],
      [
        "an",
        "s"
      ],
      [
        "b",
        "e"
      ],
      [
        "f",
        "rom"
      ],
      [
        "v",
        "i"
      ],
      [
        "ere",
        "n"
      ],
      [
        "p",
        "re"
      ],
      [
        "a",
        "m"
      ],
      [
        "c",
        "ur"
      ],
      [
        "mul",
        "ti"
      ],
      [
        "o",
        "p"
      ],
      [
        "c",
        "l"
      ],
      [
        "p",
        "res"
      ],
      [
        "ro",
        "ss"
      ],
      [
        "es",
        "e"
      ],
      [
        "ment",
        "s"
      ],
      [
        "tion",
        "s"
      ],
      [
        "perform",
        "ance"
      ],
      [
        "str",
        "uc"
      ],
      [
        "me",
        "tho"
      ],
      [
        "er",
        "s"
      ],
      [
        "en",
        "ch"
      ],
      [
        "an",
        "t"
      ],
      [
        "p",
        "ar"
      ],
      [
        "ho",
        "w"
      ],
      [
        "d",
        "s"
      ],
      [
        "bas",
        "ed"
      ],
      [
        "I",
        "n"
      ],
      [
        "ig",
        "n"
      ],
      [
        "d",
        "u"
      ],
      [
        "g",
        "n"
      ],
      [
        "m",
        "on"
      ],
      [
        "i",
        "es"
      ],
      [
        "dat",
        "a"
      ],
      [
        "i",
        "ti"
      ],
      [
        "ic",
        "al"
      ],
      [
        "f",
        "eren"
      ],
      [
        "int",
        "er"
      ],
      [
        "ar",
        "ch"
      ],
      [
        "abil",
        "ity"
      ],
      [
        "h",
        "igh"
      ],
      [
        "str",
        "ate"
      ],
      [
        "st",
        "em"
      ],
      [
        "at",
        "ing"
      ],
      [
        "co",
        "m"
      ],
      [
        "i",
        "le"
      ],
      [
        "re",
        "c"
      ],
      [
        "f",
        "ra"
      ],
      [
        "n",
        "e"
      ],
      [
        "b",
        "o"
      ],
      [
        "tas",
        "ks"
      ],
      [
        "ac",
        "ross"
      ],
      [
        "g",
        "r"
      ],
      [
        "h",
        "a"
      ],
      [
        "ap",
        "pro"
      ],
      [
        "ench",
        "mar"
      ],
      [
        "en",
        "ti"
      ],
      [
        "l",
        "arge"
      ],
      [
        "i",
        "b"
      ],
      [
        "o",
        "ver"
      ],
      [
        "f",
        "ec"
      ],
      [
        "f",
        "in"
      ],
      [
        "train",
        "ing"
      ],
      [
        "sy",
        "stem"
      ],
      [
        "dat",
        "as"
      ],
      [
        "b",
        "enchmar"
      ],
      [
        "ati",
        "ve"
      ],
      [
        "ve",
        "l"
      ],
      [
        "fra",
        "me"
      ],
      [
        "l",
        "ed"
      ],
      [
        "O",
        "ur"
      ],
      [
        "de",
        "mon"
      ],
      [
        "c",
        "ap"
      ],
      [
        "l",
        "ing"
      ],
      [
        "on",
        "g"
      ],
      [
        "T",
        "o"
      ],
      [
        "imp",
        "ro"
      ],
      [
        "at",
        "es"
      ],
      [
        "per",
        "i"
      ],
      [
        "en",
        "si"
      ],
      [
        "ug",
        "h"
      ],
      [
        "sp",
        "ec"
      ],
      [
        "ic",
        "h"
      ],
      [
        "M",
        "o"
      ],
      [
        "the",
        "ir"
      ],
      [
        "si",
        "gn"
      ],
      [
        "u",
        "al"
      ],
      [
        "an",
        "c"
      ],
      [
        "en",
        "c"
      ],
      [
        ")",
        ","
      ],
      [
        "ar",
        "i"
      ],
      [
        "t",
        "ext"
      ],
      [
        "no",
        "w"
      ],
      [
        "u",
        "d"
      ],
      [
        "pres",
        "ent"
      ],
      [
        "s",
        "o"
      ],
      [
        "th",
        "er"
      ],
      [
        "int",
        "ro"
      ],
      [
        "appro",
        "ach"
      ],
      [
        "s",
        "how"
      ],
      [
        "pro",
        "po"
      ],
      [
        "en",
        "ce"
      ],
      [
        "frame",
        "work"
      ],
      [
        "k",
        "e"
      ],
      [
        "t",
        "e"
      ],
      [
        "ef",
        "fec"
      ],
      [
        "in",
        "c"
      ],
      [
        "en",
        "g"
      ],
      [
        "und",
        "er"
      ],
      [
        "fic",
        "i"
      ],
      [
        "a",
        "y"
      ],
      [
        "Th",
        "is"
      ],
      [
        "n",
        "ing"
      ],
      [
        "es",
        "t"
      ],
      [
        "c",
        "ess"
      ],
      [
        "u",
        "man"
      ],
      [
        "a",
        "il"
      ],
      [
        "le",
        "ar"
      ],
      [
        "c",
        "an"
      ],
      [
        "k",
        "now"
      ],
      [
        "Th",
        "e"
      ],
      [
        "th",
        "ese"
      ],
      [
        "iti",
        "es"
      ],
      [
        "wh",
        "ich"
      ],
      [
        "ti",
        "m"
      ],
      [
        "i",
        "st"
      ],
      [
        "lo",
        "w"
      ],
      [
        "h",
        "uman"
      ],
      [
        "o",
        "us"
      ],
      [
        "ati",
        "c"
      ],
      [
        "a",
        "u"
      ],
      [
        "no",
        "t"
      ],
      [
        "v",
        "en"
      ],
      [
        "f",
        "ine"
      ],
      [
        "led",
        "ge"
      ],
      [
        "iz",
        "ation"
      ],
      [
        "ar",
        "d"
      ],
      [
        "res",
        "ul"
      ],
      [
        "f",
        "i"
      ],
      [
        "pro",
        "mp"
      ],
      [
        "v",
        "es"
      ],
      [
        "d",
        "es"
      ],
      [
        "du",
        "ce"
      ],
      [
        "v",
        "al"
      ],
      [
        "al",
        "y"
      ],
      [
        "u",
        "st"
      ],
      [
        "res",
        "s"
      ],
      [
        "ach",
        "i"
      ],
      [
        "si",
        "st"
      ],
      [
        "tic",
        "al"
      ],
      [
        "L",
        "arge"
      ],
      [
        "ac",
        "cur"
      ],
      [
        "ac",
        "k"
      ],
      [
        "mo",
        "re"
      ],
      [
        "as",
        "s"
      ],
      [
        "evalu",
        "ation"
      ],
      [
        "p",
        "or"
      ],
      [
        "qu",
        "es"
      ],
      [
        "p",
        "a"
      ],
      [
        "ac",
        "y"
      ],
      [
        "wh",
        "ile"
      ],
      [
        "f",
        "ac"
      ],
      [
        "know",
        "ledge"
      ],
      [
        "t",
        "y"
      ],
      [
        "li",
        "m"
      ],
      [
        "ch",
        "all"
      ],
      [
        "an",
        "aly"
      ],
      [
        "d",
        "uc"
      ],
      [
        "t",
        "un"
      ],
      [
        "al",
        "ity"
      ],
      [
        "k",
        "en"
      ],
      [
        "f",
        "e"
      ],
      [
        "cont",
        "ext"
      ],
      [
        "s",
        "a"
      ],
      [
        "i",
        "m"
      ],
      [
        "metho",
        "ds"
      ],
      [
        "it",
        "s"
      ],
      [
        "i",
        "al"
      ],
      [
        "on",
        "s"
      ],
      [
        "su",
        "ch"
      ],
      [
        "comp",
        "le"
      ],
      [
        "sign",
        "ific"
      ],
      [
        "tr",
        "ans"
      ],
      [
        "p",
        "ut"
      ],
      [
        "E",
        "x"
      ],
      [
        "us",
        "ing"
      ],
      [
        "d",
        "er"
      ],
      [
        "propo",
        "se"
      ],
      [
        "f",
        "ul"
      ],
      [
        "l",
        "l"
      ],
      [
        "signific",
        "ant"
      ],
      [
        "do",
        "main"
      ],
      [
        "tr",
        "i"
      ],
      [
        "k",
        "ing"
      ],
      [
        "sc",
        "al"
      ],
      [
        "se",
        "arch"
      ],
      [
        "d",
        "is"
      ],
      [
        "di",
        "f"
      ],
      [
        "t",
        "ed"
      ],
      [
        "ag",
        "ent"
      ],
      [
        "resul",
        "ts"
      ],
      [
        "Mo",
        "del"
      ],
      [
        "intro",
        "duce"
      ],
      [
        "ro",
        "ugh"
      ],
      [
        "ur",
        "al"
      ],
      [
        "gener",
        "ation"
      ],
      [
        "enc",
        "y"
      ],
      [
        "p",
        "r"
      ],
      [
        "le",
        "c"
      ],
      [
        "en",
        "d"
      ],
      [
        "c",
        "or"
      ],
      [
        "L",
        "anguage"
      ],
      [
        "st",
        "and"
      ],
      [
        "in",
        "form"
      ],
      [
        "abil",
        "ities"
      ],
      [
        "f",
        "o"
      ],
      [
        "u",
        "p"
      ],
      [
        "ha",
        "ve"
      ],
      [
        "al",
        "ign"
      ],
      [
        "ag",
        "es"
      ],
      [
        "to",
        "ken"
      ],
      [
        "in",
        "to"
      ],
      [
        "tas",
        "k"
      ],
      [
        "re",
        "e"
      ],
      [
        "we",
        "ver"
      ],
      [
        "e",
        "p"
      ],
      [
        "su",
        "b"
      ],
      [
        "u",
        "re"
      ],
      [
        "bo",
        "th"
      ],
      [
        "i",
        "p"
      ],
      [
        "feren",
        "ce"
      ],
      [
        "H",
        "o"
      ],
      [
        "ist",
        "ing"
      ],
      [
        "v",
        "ing"
      ],
      [
        "C",
        "o"
      ],
      [
        "ad",
        "d"
      ],
      [
        "ef",
        "fici"
      ],
      [
        "lo",
        "g"
      ],
      [
        "achi",
        "ev"
      ],
      [
        "res",
        "p"
      ],
      [
        "lim",
        "it"
      ],
      [
        "p",
        "lo"
      ],
      [
        "p",
        "ri"
      ],
      [
        "u",
        "b"
      ],
      [
        "add",
        "ress"
      ],
      [
        "l",
        "es"
      ],
      [
        "b",
        "et"
      ],
      [
        "l",
        "ic"
      ],
      [
        "ver",
        "s"
      ],
      [
        "pl",
        "ic"
      ],
      [
        "demon",
        "strate"
      ],
      [
        "igh",
        "t"
      ],
      [
        "tion",
        "al"
      ],
      [
        "accur",
        "acy"
      ],
      [
        "Ho",
        "wever"
      ],
      [
        "spec",
        "ific"
      ],
      [
        "con",
        "sist"
      ],
      [
        "ation",
        "al"
      ],
      [
        "A",
        "I"
      ],
      [
        "lear",
        "ning"
      ],
      [
        "h",
        "as"
      ],
      [
        "m",
        "a"
      ],
      [
        "is",
        "tic"
      ],
      [
        "our",
        "ce"
      ],
      [
        "b",
        "le"
      ],
      [
        "R",
        "A"
      ],
      [
        "ar",
        "y"
      ],
      [
        "Model",
        "s"
      ],
      [
        "pro",
        "cess"
      ],
      [
        "at",
        "h"
      ],
      [
        "or",
        "s"
      ],
      [
        "th",
        "rough"
      ],
      [
        "inform",
        "ation"
      ],
      [
        "c",
        "ri"
      ],
      [
        "re",
        "qu"
      ],
      [
        "ex",
        "peri"
      ],
      [
        "w",
        "er"
      ],
      [
        "m",
        "s"
      ],
      [
        "ensi",
        "ve"
      ],
      [
        "n",
        "ess"
      ],
      [
        "of",
        "ten"
      ],
      [
        "v",
        "is"
      ],
      [
        "datas",
        "et"
      ],
      [
        "f",
        "er"
      ],
      [
        "en",
        "h"
      ],
      [
        "analy",
        "s"
      ],
      [
        "struc",
        "tu"
      ],
      [
        "t",
        "w"
      ],
      [
        "de",
        "t"
      ],
      [
        "chall",
        "eng"
      ],
      [
        "or",
        "y"
      ],
      [
        "v",
        "ari"
      ],
      [
        "re",
        "n"
      ],
      [
        "re",
        "tri"
      ],
      [
        "qu",
        "ality"
      ],
      [
        "is",
        "h"
      ],
      [
        "le",
        "vel"
      ],
      [
        "e",
        "ts"
      ],
      [
        "comple",
        "x"
      ],
      [
        "effec",
        "tive"
      ],
      [
        "re",
        "al"
      ],
      [
        ")",
        "."
      ],
      [
        "re",
        "search"
      ],
      [
        "impro",
        "ve"
      ],
      [
        "strate",
        "g"
      ],
      [
        "s",
        "ing"
      ],
      [
        "benchmar",
        "k"
      ],
      [
        "re",
        "l"
      ],
      [
        "gener",
        "al"
      ],
      [
        "ding",
        "s"
      ],
      [
        "co",
        "de"
      ],
      [
        "b",
        "ut"
      ],
      [
        "v",
        "id"
      ],
      [
        "op",
        "tim"
      ],
      [
        "u",
        "tion"
      ],
      [
        "j",
        "ec"
      ],
      [
        "in",
        "es"
      ],
      [
        "b",
        "i"
      ],
      [
        "s",
        "h"
      ],
      [
        "cap",
        "abilities"
      ],
      [
        "des",
        "ign"
      ],
      [
        "t",
        "ain"
      ],
      [
        "datas",
        "ets"
      ],
      [
        "tr",
        "a"
      ],
      [
        "ur",
        "ther"
      ],
      [
        "e",
        "mp"
      ],
      [
        "ad",
        "v"
      ],
      [
        "i",
        "on"
      ],
      [
        "re",
        "main"
      ],
      [
        "R",
        "e"
      ],
      [
        "ex",
        "isting"
      ],
      [
        "benchmar",
        "ks"
      ],
      [
        "pa",
        "per"
      ],
      [
        "re",
        "present"
      ],
      [
        "metho",
[...]
